{
    "<pad>": 0,
    "<unk>": 1,
    "<s>": 2,
    "</s>": 3,
    "<||>": 4,
    ".": 5,
    ",": 6,
    "der": 7,
    "und": 8,
    "die": 9,
    "in": 10,
    "t@@": 11,
    "en@@": 12,
    "von": 13,
    "ist": 14,
    "-@@": 15,
    "Die": 16,
    "den": 17,
    "zu": 18,
    "„@@": 19,
    "eine": 20,
    "ein": 21,
    "mit": 22,
    "das": 23,
    "wurde": 24,
    "sich": 25,
    "Sie": 26,
    "auf": 27,
    "e@@": 28,
    "war": 29,
    "für": 30,
    "des": 31,
    "er": 32,
    "er@@": 33,
    "als": 34,
    "es": 35,
    "Er": 36,
    "ge@@": 37,
    "Es": 38,
    "Der": 39,
    "im": 40,
    "dem": 41,
    "s@@": 42,
    "Das": 43,
    "d@@": 44,
    "an": 45,
    "auch": 46,
    "an@@": 47,
    "“": 48,
    "einem": 49,
    "gen@@": 50,
    "be@@": 51,
    "sie": 52,
    "te@@": 53,
    "den@@": 54,
    "nicht": 55,
    "a@@": 56,
    "sind": 57,
    "einen": 58,
    "y@@": 59,
    "ben@@": 60,
    "ver@@": 61,
    "Ich": 62,
    "g@@": 63,
    "einer": 64,
    "wird": 65,
    "st@@": 66,
    "n@@": 67,
    "Ein": 68,
    "k@@": 69,
    "et@@": 70,
    "“@@": 71,
    "ein@@": 72,
    "hat": 73,
    "ten@@": 74,
    "?": 75,
    "aus": 76,
    "de@@": 77,
    "um": 78,
    "nach": 79,
    "dass": 80,
    "o@@": 81,
    "m@@": 82,
    "l@@": 83,
    "ier@@": 84,
    "in@@": 85,
    "b@@": 86,
    "auf@@": 87,
    "ch@@": 88,
    "ung@@": 89,
    "le@@": 90,
    "f@@": 91,
    "ich": 92,
    "In": 93,
    "un@@": 94,
    "ent@@": 95,
    "al@@": 96,
    "on@@": 97,
    "s": 98,
    "sch@@": 99,
    "wurden": 100,
    "z@@": 101,
    "i@@": 102,
    "aus@@": 103,
    "wer@@": 104,
    "werden": 105,
    "ab@@": 106,
    "te": 107,
    "Ver@@": 108,
    "K@@": 109,
    "bei": 110,
    "über": 111,
    "S@@": 112,
    "p@@": 113,
    "ar@@": 114,
    "ten": 115,
    "lich@@": 116,
    "h@@": 117,
    "c@@": 118,
    "w@@": 119,
    "oder": 120,
    "ann@@": 121,
    "is@@": 122,
    "seine": 123,
    "Be@@": 124,
    "Eine": 125,
    "e": 126,
    "t": 127,
    "um@@": 128,
    "A@@": 129,
    "u@@": 130,
    "wie": 131,
    "ischen": 132,
    "el@@": 133,
    "An@@": 134,
    "zu@@": 135,
    "es@@": 136,
    "ter@@": 137,
    "am": 138,
    "ck@@": 139,
    "or@@": 140,
    "<bin100>": 141,
    "ische": 142,
    "ur@@": 143,
    "durch": 144,
    "en": 145,
    "ist@@": 146,
    "zum": 147,
    "ger@@": 148,
    "zwei": 149,
    "der@@": 150,
    "N@@": 151,
    "gibt": 152,
    "T@@": 153,
    "re@@": 154,
    "at@@": 155,
    "haben": 156,
    "Sch@@": 157,
    "li@@": 158,
    "as@@": 159,
    "vor@@": 160,
    "H@@": 161,
    "war@@": 162,
    "<bin43>": 163,
    "<bin39>": 164,
    "<bin35>": 165,
    "B@@": 166,
    "<bin47>": 167,
    "a": 168,
    "r@@": 169,
    "<bin51>": 170,
    "<bin32>": 171,
    "\"@@": 172,
    "y": 173,
    "ha@@": 174,
    "G@@": 175,
    "seiner": 176,
    "<bin54>": 177,
    "L@@": 178,
    "<bin29>": 179,
    "zur": 180,
    "!": 181,
    "<bin6>": 182,
    "<bin57>": 183,
    "W@@": 184,
    "R@@": 185,
    "Diese": 186,
    "kann": 187,
    "<bin59>": 188,
    "o": 189,
    "v@@": 190,
    "<bin27>": 191,
    "über@@": 192,
    "<bin98>": 193,
    "F@@": 194,
    "ung": 195,
    "<bin25>": 196,
    "waren": 197,
    "s.": 198,
    "<bin14>": 199,
    "C@@": 200,
    "<bin61>": 201,
    "ie@@": 202,
    "Mann": 203,
    "<bin99>": 204,
    "<bin24>": 205,
    "dieser": 206,
    "<bin63>": 207,
    "<bin77>": 208,
    "E@@": 209,
    "<bin9>": 210,
    "<bin3>": 211,
    "<bin13>": 212,
    "<bin22>": 213,
    "hatte": 214,
    "<bin84>": 215,
    "<bin65>": 216,
    "<bin21>": 217,
    "<bin66>": 218,
    "P@@": 219,
    "<bin96>": 220,
    "<bin79>": 221,
    "ihre": 222,
    "<bin12>": 223,
    "<bin20>": 224,
    "<bin1>": 225,
    "<bin93>": 226,
    "vor": 227,
    "<bin68>": 228,
    "<bin69>": 229,
    "<bin19>": 230,
    "ot@@": 231,
    "noch": 232,
    "<bin2>": 233,
    "ad@@": 234,
    "ol@@": 235,
    "<bin8>": 236,
    "<bin5>": 237,
    "<bin18>": 238,
    "chen@@": 239,
    "<bin95>": 240,
    "<bin81>": 241,
    "<bin97>": 242,
    "<bin91>": 243,
    "<bin71>": 244,
    "<bin11>": 245,
    "det@@": 246,
    "it@@": 247,
    "<bin89>": 248,
    "nur": 249,
    "<bin4>": 250,
    "<bin17>": 251,
    "M@@": 252,
    "<bin86>": 253,
    "<bin72>": 254,
    "cht@@": 255,
    "<bin82>": 256,
    "<bin73>": 257,
    "<bin10>": 258,
    "O@@": 259,
    "<bin16>": 260,
    "ra@@": 261,
    "Re@@": 262,
    "i": 263,
    "ing@@": 264,
    "<bin87>": 265,
    "<bin74>": 266,
    "on": 267,
    "<bin94>": 268,
    "ter": 269,
    "<bin15>": 270,
    "jedoch": 271,
    "<bin83>": 272,
    "<bin7>": 273,
    "D@@": 274,
    "and@@": 275,
    "<bin90>": 276,
    "<bin44>": 277,
    "<bin42>": 278,
    "ig@@": 279,
    "<bin41>": 280,
    "<bin38>": 281,
    "aber": 282,
    "sehr": 283,
    "<bin75>": 284,
    "Stadt": 285,
    "<bin48>": 286,
    "<bin92>": 287,
    "<bin34>": 288,
    "<bin45>": 289,
    "<bin36>": 290,
    "<bin46>": 291,
    "<bin49>": 292,
    "St@@": 293,
    "am@@": 294,
    "<bin40>": 295,
    "<bin33>": 296,
    "<bin88>": 297,
    "<bin76>": 298,
    "<bin37>": 299,
    "Ab@@": 300,
    "<bin31>": 301,
    "<bin50>": 302,
    "<bin52>": 303,
    "isch@@": 304,
    "se@@": 305,
    "<bin53>": 306,
    "ern@@": 307,
    "di@@": 308,
    "<bin30>": 309,
    "-": 310,
    "Im": 311,
    "<bin55>": 312,
    "<bin56>": 313,
    "ungen": 314,
    "<bin28>": 315,
    "wur@@": 316,
    "stell@@": 317,
    "<bin78>": 318,
    "<bin26>": 319,
    "<bin58>": 320,
    "<bin85>": 321,
    "keine": 322,
    "du": 323,
    "ss@@": 324,
    "eines": 325,
    "<bin60>": 326,
    "d": 327,
    "unter@@": 328,
    "sein": 329,
    "können": 330,
    "seinen": 331,
    "<bin62>": 332,
    "ei@@": 333,
    "unter": 334,
    "mi@@": 335,
    "Vor@@": 336,
    "hat@@": 337,
    "la@@": 338,
    "Aus@@": 339,
    "<bin80>": 340,
    "<bin23>": 341,
    "Dies": 342,
    "<bin64>": 343,
    "gel@@": 344,
    "gen": 345,
    "drei": 346,
    "so": 347,
    "Ein@@": 348,
    "us@@": 349,
    "geb@@": 350,
    "ut@@": 351,
    "Er@@": 352,
    "<bin67>": 353,
    "ber@@": 354,
    "diese": 355,
    "befindet": 356,
    "lei@@": 357,
    "il@@": 358,
    "Frau": 359,
    "während": 360,
    "ir@@": 361,
    "ne@@": 362,
    "In@@": 363,
    "<bin70>": 364,
    "al": 365,
    "vom": 366,
    "au@@": 367,
    "ff@@": 368,
    "de": 369,
    "Zeit": 370,
    "da@@": 371,
    "ungs@@": 372,
    "habe": 373,
    "mir": 374,
    "ä@@": 375,
    "ti@@": 376,
    "ag@@": 377,
    "geh@@": 378,
    "liegt": 379,
    "her@@": 380,
    "Ge@@": 381,
    "Z@@": 382,
    "Mar@@": 383,
    "man": 384,
    "kt@@": 385,
    "ro@@": 386,
    "was": 387,
    "gesch@@": 388,
    "diesem": 389,
    "liche": 390,
    "ihn": 391,
    "wir": 392,
    "om@@": 393,
    ":": 394,
    "ts@@": 395,
    "bekann@@": 396,
    "mich": 397,
    "seh@@": 398,
    "Teil": 399,
    "l": 400,
    "ft@@": 401,
    "gew@@": 402,
    "später": 403,
    "net@@": 404,
    "st": 405,
    "sp@@": 406,
    "k": 407,
    "Wir": 408,
    "ach@@": 409,
    "ich@@": 410,
    "ul@@": 411,
    "os@@": 412,
    "Seine": 413,
    "immer": 414,
    "alle": 415,
    "ind@@": 416,
    "Nach": 417,
    "ern": 418,
    "führ@@": 419,
    "anderen": 420,
    "sagte": 421,
    "ass@@": 422,
    "nich@@": 423,
    "ge": 424,
    "em@@": 425,
    "V@@": 426,
    "lich": 427,
    "zurück@@": 428,
    "ing": 429,
    "ungen@@": 430,
    "viele": 431,
    "ange@@": 432,
    "dar@@": 433,
    "seinem": 434,
    "of": 435,
    "hin@@": 436,
    "le": 437,
    "sa@@": 438,
    "rie@@": 439,
    "ischer": 440,
    "ri@@": 441,
    "x@@": 442,
    "ihr": 443,
    "Al@@": 444,
    "j@@": 445,
    "Se@@": 446,
    "lo@@": 447,
    "ak@@": 448,
    "I@@": 449,
    "Ar@@": 450,
    "andere": 451,
    "bis": 452,
    "ihm": 453,
    "ie": 454,
    "De@@": 455,
    "tig@@": 456,
    "sten": 457,
    "erste": 458,
    "Sein": 459,
    "nen@@": 460,
    "zeich@@": 461,
    "op@@": 462,
    "\"": 463,
    "ihrer": 464,
    "isch": 465,
    "wir@@": 466,
    "Le@@": 467,
    "ell@@": 468,
    "sen@@": 469,
    "verwen@@": 470,
    "fen@@": 471,
    "lichen": 472,
    "spiel@@": 473,
    "Sp@@": 474,
    "Zwei": 475,
    "ation@@": 476,
    "The": 477,
    "gebor@@": 478,
    "all@@": 479,
    "ihren": 480,
    "mehr": 481,
    "J@@": 482,
    "si@@": 483,
    "teil@@": 484,
    "chen": 485,
    "ik@@": 486,
    "rei@@": 487,
    "Ch@@": 488,
    "Ro@@": 489,
    "gab": 490,
    "ersten": 491,
    "eh@@": 492,
    "wenn": 493,
    "Wie": 494,
    "em": 495,
    "Als": 496,
    "Ma@@": 497,
    "zwischen": 498,
    "tra@@": 499,
    "Menschen": 500,
    "qu@@": 501,
    "gegen": 502,
    "Zu": 503,
    "setz@@": 504,
    "ausge@@": 505,
    "etwas": 506,
    "dann": 507,
    "ens@@": 508,
    "g": 509,
    "lie@@": 510,
    "us": 511,
    "ster@@": 512,
    "ation": 513,
    "men@@": 514,
    "ste": 515,
    "Co@@": 516,
    "el": 517,
    "ck": 518,
    "kon@@": 519,
    "n": 520,
    "'@@": 521,
    "beiden": 522,
    "New": 523,
    "gef@@": 524,
    "Und": 525,
    "ü@@": 526,
    "Auf@@": 527,
    "he@@": 528,
    "Ihre": 529,
    "wieder": 530,
    "nie": 531,
    "Über@@": 532,
    "ale": 533,
    "bei@@": 534,
    "bar@@": 535,
    "or": 536,
    "Unter@@": 537,
    "ho@@": 538,
    "m": 539,
    "gi@@": 540,
    "vier": 541,
    "Was": 542,
    "end@@": 543,
    "Haupt@@": 544,
    "halten@@": 545,
    "ant@@": 546,
    "as": 547,
    "einige": 548,
    "tr@@": 549,
    "sich@@": 550,
    "Un@@": 551,
    "U@@": 552,
    "Jahr": 553,
    "mehrere": 554,
    "aut@@": 555,
    "ommen@@": 556,
    "ste@@": 557,
    "ö@@": 558,
    "durch@@": 559,
    "Jahre": 560,
    "h": 561,
    "meisten": 562,
    "Zu@@": 563,
    "da": 564,
    "se": 565,
    "dieses": 566,
    "Aber": 567,
    "man@@": 568,
    "ende": 569,
    "Bo@@": 570,
    "fin@@": 571,
    "einge@@": 572,
    "f": 573,
    "pp@@": 574,
    "är@@": 575,
    "Stadt@@": 576,
    "tier@@": 577,
    "ph@@": 578,
    "mm@@": 579,
    "ru@@": 580,
    "ts": 581,
    "ers": 582,
    "mit@@": 583,
    "ler@@": 584,
    "Während": 585,
    "lan@@": 586,
    "bin": 587,
    "na@@": 588,
    "ap@@": 589,
    "Gruppe": 590,
    "men": 591,
    "land@@": 592,
    "acht@@": 593,
    "Kon@@": 594,
    "Namen": 595,
    "and": 596,
    "ins": 597,
    "und@@": 598,
    "u": 599,
    "ebenfalls": 600,
    "br@@": 601,
    "Einige": 602,
    "än@@": 603,
    "Bei": 604,
    "diesen": 605,
    "me@@": 606,
    "oft": 607,
    "Auf": 608,
    "ne": 609,
    "jetzt": 610,
    "enden": 611,
    "ar": 612,
    "ah@@": 613,
    "ster": 614,
    "kei@@": 615,
    "z": 616,
    "Ihr": 617,
    "Name": 618,
    "Di@@": 619,
    "wei@@": 620,
    "ch": 621,
    "uns": 622,
    "Mon@@": 623,
    "ierte": 624,
    "Viele": 625,
    "ß@@": 626,
    "En@@": 627,
    "Y@@": 628,
    "Spiel@@": 629,
    "hei@@": 630,
    "selbst": 631,
    "Wenn": 632,
    "ben": 633,
    "Nähe": 634,
    "iert": 635,
    "schaft@@": 636,
    "ma@@": 637,
    "Par@@": 638,
    "ers@@": 639,
    "kommen@@": 640,
    "Mo@@": 641,
    "wor@@": 642,
    "steht": 643,
    "heute": 644,
    "ler": 645,
    "ic@@": 646,
    "tes": 647,
    "dig@@": 648,
    "Zeit@@": 649,
    "enz@@": 650,
    "ta@@": 651,
    "ger": 652,
    "Li@@": 653,
    "du@@": 654,
    "Gra@@": 655,
    "zei@@": 656,
    "pf@@": 657,
    "for@@": 658,
    "inn@@": 659,
    "bel@@": 660,
    "sen": 661,
    "ok@@": 662,
    "He@@": 663,
    "Bar@@": 664,
    "statt@@": 665,
    "Sa@@": 666,
    "arbei@@": 667,
    "sk@@": 668,
    "Land@@": 669,
    "licher": 670,
    "gem@@": 671,
    "spielte": 672,
    "hr@@": 673,
    "Car@@": 674,
    "viel": 675,
    "lin@@": 676,
    "Alle": 677,
    "Mädchen": 678,
    "bet@@": 679,
    "sag@@": 680,
    "cken": 681,
    "nach@@": 682,
    "b": 683,
    "str@@": 684,
    "reich@@": 685,
    "ken": 686,
    "zi@@": 687,
    "Wei@@": 688,
    "würde": 689,
    "ken@@": 690,
    "Für": 691,
    "fe@@": 692,
    "ke": 693,
    "os": 694,
    "School": 695,
    "lang": 696,
    "alen": 697,
    "be": 698,
    "zusammen@@": 699,
    "wa@@": 700,
    "im@@": 701,
    "meine": 702,
    "Album": 703,
    "aufge@@": 704,
    "sie@@": 705,
    "ien@@": 706,
    "beg@@": 707,
    "che": 708,
    "muss": 709,
    "Dieser": 710,
    "ihrem": 711,
    "unden@@": 712,
    "fer@@": 713,
    "tre@@": 714,
    "ow@@": 715,
    "ohne": 716,
    "bo@@": 717,
    "ige": 718,
    "beim": 719,
    "th@@": 720,
    "ill@@": 721,
    "ierten": 722,
    "Ta@@": 723,
    "steh@@": 724,
    "len": 725,
    "mal@@": 726,
    "ies@@": 727,
    "ton": 728,
    "end": 729,
    "so@@": 730,
    "gut": 731,
    "cken@@": 732,
    "fen": 733,
    "Film": 734,
    "Um@@": 735,
    "Ne@@": 736,
    "La@@": 737,
    "Ha@@": 738,
    "kt": 739,
    "große": 740,
    "est@@": 741,
    "So@@": 742,
    "rich@@": 743,
    "Schul@@": 744,
    "neue": 745,
    "besch@@": 746,
    "wür@@": 747,
    "Her@@": 748,
    "Gemeinde": 749,
    "ord@@": 750,
    "geht": 751,
    "fahr@@": 752,
    "ang@@": 753,
    "Mit": 754,
    "Ho@@": 755,
    "fünf": 756,
    "enn@@": 757,
    "ere": 758,
    "John": 759,
    "hal@@": 760,
    "ine": 761,
    "Wasser@@": 762,
    "co@@": 763,
    "ging": 764,
    "erhielt": 765,
    "Rei@@": 766,
    "spielt": 767,
    "Männer": 768,
    "kön@@": 769,
    "ationen": 770,
    "Kinder@@": 771,
    "mo@@": 772,
    "kam": 773,
    "Geschichte": 774,
    "Man@@": 775,
    "len@@": 776,
    "Po@@": 777,
    "kein": 778,
    "gest@@": 779,
    "wo": 780,
    "hatten": 781,
    "Familie": 782,
    "stand": 783,
    "Auch": 784,
    "tik@@": 785,
    "Qu@@": 786,
    "El@@": 787,
    "großen": 788,
    "Jahren": 789,
    "Unternehmen": 790,
    "Mc@@": 791,
    "eu@@": 792,
    "tion@@": 793,
    "igen": 794,
    "Kinder": 795,
    "ys": 796,
    "erte": 797,
    "ran@@": 798,
    "gan@@": 799,
    "müssen": 800,
    "nen": 801,
    "Me@@": 802,
    "Ber@@": 803,
    "verb@@": 804,
    "Su@@": 805,
    "Nach@@": 806,
    "Kan@@": 807,
    "weitere": 808,
    "son@@": 809,
    "pro@@": 810,
    "Sohn": 811,
    "begann": 812,
    "dies": 813,
    "kl@@": 814,
    "og@@": 815,
    "fest@@": 816,
    "tige": 817,
    "we@@": 818,
    "Art": 819,
    "ien": 820,
    "me": 821,
    "ce@@": 822,
    "p": 823,
    "bi@@": 824,
    "Ju@@": 825,
    "at": 826,
    "Arbeit": 827,
    "lang@@": 828,
    "führte": 829,
    "Sie@@": 830,
    "Pro@@": 831,
    "ko@@": 832,
    "ent": 833,
    "Or@@": 834,
    "Lo@@": 835,
    "par@@": 836,
    "su@@": 837,
    "Leben": 838,
    "Bet@@": 839,
    "ieren": 840,
    "elt@@": 841,
    "Kar@@": 842,
    "Ra@@": 843,
    "Vater": 844,
    "sten@@": 845,
    "mach@@": 846,
    "Titel": 847,
    "Du": 848,
    "x": 849,
    "schaft": 850,
    "ner": 851,
    "bil@@": 852,
    "konnte": 853,
    "stand@@": 854,
    "gn@@": 855,
    "chten": 856,
    "nahm": 857,
    "Band": 858,
    "Con@@": 859,
    "Ri@@": 860,
    "kommen": 861,
    "ün@@": 862,
    "spielen": 863,
    "Spiel": 864,
    "Ja@@": 865,
    "mon@@": 866,
    "Ende": 867,
    "Tra@@": 868,
    "get@@": 869,
    "vielen": 870,
    "Fl@@": 871,
    "kte": 872,
    "eren": 873,
    "sowohl": 874,
    "bl@@": 875,
    "Sh@@": 876,
    "Mor@@": 877,
    "ati@@": 878,
    "ob@@": 879,
    "ens": 880,
    "Hand@@": 881,
    "ton@@": 882,
    "mein": 883,
    "hör@@": 884,
    "ley": 885,
    "ve@@": 886,
    "meiner": 887,
    "häufig": 888,
    "uss@@": 889,
    "enk@@": 890,
    "Har@@": 891,
    "ih@@": 892,
    "Junge": 893,
    "werde": 894,
    "Lin@@": 895,
    "Dieses": 896,
    "min@@": 897,
    "is": 898,
    "zen@@": 899,
    "Später": 900,
    "utz@@": 901,
    "Gesch@@": 902,
    "äu@@": 903,
    "icht@@": 904,
    "ene": 905,
    "Straße": 906,
    ".@@": 907,
    "isches": 908,
    "vier@@": 909,
    "cht": 910,
    "erk@@": 911,
    "dort": 912,
    "Pe@@": 913,
    "hier": 914,
    "ft": 915,
    "zwei@@": 916,
    "ve": 917,
    "enen": 918,
    "Dar@@": 919,
    "Pa@@": 920,
    "kleine": 921,
    "ick@@": 922,
    "Lie@@": 923,
    "Ger@@": 924,
    "Mitglied": 925,
    "gehören": 926,
    "To@@": 927,
    "Ko@@": 928,
    "seines": 929,
    "frei@@": 930,
    "gte": 931,
    "oll@@": 932,
    "sei@@": 933,
    "gh@@": 934,
    "Mann@@": 935,
    "Gu@@": 936,
    "del@@": 937,
    "sollte": 938,
    "lu@@": 939,
    "zog": 940,
    "West@@": 941,
    "äch@@": 942,
    "Th@@": 943,
    "hi@@": 944,
    "Park": 945,
    "tung": 946,
    "besteht": 947,
    ";": 948,
    "ner@@": 949,
    "ges": 950,
    "elle": 951,
    "Ka@@": 952,
    "mus@@": 953,
    "gra@@": 954,
    "Au@@": 955,
    "gehört": 956,
    "(@@": 957,
    "ur": 958,
    "rau@@": 959,
    "mar@@": 960,
    "veröffent@@": 961,
    "Mit@@": 962,
    "son": 963,
    "che@@": 964,
    "ard@@": 965,
    "je@@": 966,
    "gl@@": 967,
    "Universität": 968,
    "ierung": 969,
    "eln": 970,
    "High": 971,
    "Ad@@": 972,
    "We@@": 973,
    "Tag": 974,
    "Am@@": 975,
    "ber": 976,
    "amm@@": 977,
    "Schule": 978,
    "Fre@@": 979,
    "Da@@": 980,
    "land": 981,
    "Gar@@": 982,
    "ihnen": 983,
    "ell": 984,
    "zeit": 985,
    "hinzu@@": 986,
    "ver": 987,
    "z.": 988,
    "gehen": 989,
    "ce": 990,
    "fol@@": 991,
    "fe": 992,
    "ze@@": 993,
    "sicher@@": 994,
    "heit@@": 995,
    "Ent@@": 996,
    "Bu@@": 997,
    "hauptsächlich": 998,
    "erst@@": 999,
    "Ober@@": 1000,
    "Hund": 1001,
    "Sk@@": 1002,
    "iel@@": 1003,
    "Musik@@": 1004,
    "Welt@@": 1005,
    "ges@@": 1006,
    "c": 1007,
    "War@@": 1008,
    "zehn": 1009,
    "dien@@": 1010,
    "Gebäude": 1011,
    "the": 1012,
    "verschiedene": 1013,
    "macht": 1014,
    "ker": 1015,
    "id@@": 1016,
    "bekannt": 1017,
    "ga@@": 1018,
    "‘@@": 1019,
    "Musik": 1020,
    "Bur@@": 1021,
    "Dann": 1022,
    "versu@@": 1023,
    "hält": 1024,
    "Neu@@": 1025,
    "Gebiet": 1026,
    "College": 1027,
    "wen@@": 1028,
    "ori@@": 1029,
    "schon": 1030,
    "zeit@@": 1031,
    "anz@@": 1032,
    "ment@@": 1033,
    "Reihe": 1034,
    "möchte": 1035,
    "gt": 1036,
    "Inter@@": 1037,
    "Kind": 1038,
    "wegen": 1039,
    "verwendet": 1040,
    "Frauen": 1041,
    "kan@@": 1042,
    "fort@@": 1043,
    "arbeitete": 1044,
    "Br@@": 1045,
    "größte": 1046,
    "Engl@@": 1047,
    "Zei@@": 1048,
    "verschiedenen": 1049,
    "For@@": 1050,
    "nun": 1051,
    "ast@@": 1052,
    "ia": 1053,
    "soll@@": 1054,
    "letzten": 1055,
    "befinden": 1056,
    "Bel@@": 1057,
    "zo@@": 1058,
    "Wa@@": 1059,
    "weiter@@": 1060,
    "Lei@@": 1061,
    "zer@@": 1062,
    "dern": 1063,
    "darauf": 1064,
    "län@@": 1065,
    "angen@@": 1066,
    "Nor@@": 1067,
    "weiter": 1068,
    "machte": 1069,
    "gesetz@@": 1070,
    "änder@@": 1071,
    "tä@@": 1072,
    "Gen@@": 1073,
    "lig@@": 1074,
    "ari@@": 1075,
    "vi@@": 1076,
    "ort@@": 1077,
    "einigen": 1078,
    "ze": 1079,
    "rat@@": 1080,
    "zen": 1081,
    "Sta@@": 1082,
    "Bitte": 1083,
    "Tri@@": 1084,
    "Ste@@": 1085,
    "Per@@": 1086,
    "tete": 1087,
    "einfach": 1088,
    "Park@@": 1089,
    "Bi@@": 1090,
    "denen": 1091,
    "Fa@@": 1092,
    "les@@": 1093,
    "Haus@@": 1094,
    "Rück@@": 1095,
    "kommt": 1096,
    "Je@@": 1097,
    "Min@@": 1098,
    "Ru@@": 1099,
    "finden": 1100,
    "Fahr@@": 1101,
    "mer@@": 1102,
    "sechs": 1103,
    "dich": 1104,
    "trä@@": 1105,
    "fast": 1106,
    "stehen": 1107,
    "Kat@@": 1108,
    "tigen": 1109,
    "weg@@": 1110,
    "rü@@": 1111,
    "nichts": 1112,
    "ds": 1113,
    "ellen": 1114,
    "gele@@": 1115,
    "do@@": 1116,
    "bevor": 1117,
    "Am": 1118,
    "ks@@": 1119,
    "fel@@": 1120,
    "glau@@": 1121,
    "star@@": 1122,
    "ganz": 1123,
    "besuchte": 1124,
    "Mutter": 1125,
    "trat": 1126,
    "rot@@": 1127,
    "ke@@": 1128,
    "bur@@": 1129,
    "ig": 1130,
    "verl@@": 1131,
    "bef@@": 1132,
    "Do@@": 1133,
    "ert": 1134,
    "alles": 1135,
    "rä@@": 1136,
    "Du@@": 1137,
    "neuen": 1138,
    "Coun@@": 1139,
    "per@@": 1140,
    "Grund@@": 1141,
    "heit": 1142,
    "tern": 1143,
    "heraus@@": 1144,
    "gel": 1145,
    "Lu@@": 1146,
    "ed@@": 1147,
    "alten": 1148,
    "Pf@@": 1149,
    "sicht@@": 1150,
    "et": 1151,
    "sel@@": 1152,
    "kleinen": 1153,
    "starb": 1154,
    "Flug@@": 1155,
    "folgenden": 1156,
    "!@@": 1157,
    "schnell": 1158,
    "iger": 1159,
    "Dorf": 1160,
    "to@@": 1161,
    "sche": 1162,
    "ett@@": 1163,
    "dung": 1164,
    "Bau@@": 1165,
    "ven": 1166,
    "stu@@": 1167,
    "ka@@": 1168,
    "sitz@@": 1169,
    "Saint": 1170,
    "lit@@": 1171,
    "gs@@": 1172,
    "dir": 1173,
    "abge@@": 1174,
    "ons": 1175,
    "Personen": 1176,
    "yl@@": 1177,
    "ub@@": 1178,
    "schrieb": 1179,
    "ine@@": 1180,
    "form@@": 1181,
    "Buch": 1182,
    "Wal@@": 1183,
    "innerhalb": 1184,
    "einzige": 1185,
    "Mal@@": 1186,
    "neben": 1187,
    "Nord@@": 1188,
    "Hoch@@": 1189,
    "keinen": 1190,
    "bedeut@@": 1191,
    "bar": 1192,
    "damit": 1193,
    "Sal@@": 1194,
    "Ba@@": 1195,
    "ür@@": 1196,
    "lange": 1197,
    "manchmal": 1198,
    "Vereinigten": 1199,
    "lebt": 1200,
    "ion@@": 1201,
    "tz@@": 1202,
    "At@@": 1203,
    "iz@@": 1204,
    "handelt": 1205,
    "führt": 1206,
    "ations@@": 1207,
    "außerdem": 1208,
    "letzte": 1209,
    "davon": 1210,
    "ör@@": 1211,
    "tern@@": 1212,
    "tion": 1213,
    "sitzt": 1214,
    "allen": 1215,
    "Film@@": 1216,
    "ven@@": 1217,
    "sta@@": 1218,
    "ip@@": 1219,
    "ard": 1220,
    "Mat@@": 1221,
    "Pre@@": 1222,
    "Luft@@": 1223,
    "Frei@@": 1224,
    "lau@@": 1225,
    "Beide": 1226,
    "schen": 1227,
    "fre@@": 1228,
    "Region": 1229,
    "Ort": 1230,
    "Land": 1231,
    "tel@@": 1232,
    "ismus": 1233,
    "könnte": 1234,
    "Außerdem": 1235,
    "voll@@": 1236,
    "mat@@": 1237,
    "gewäh@@": 1238,
    "erung": 1239,
    "dete": 1240,
    "derzeit": 1241,
    "Von": 1242,
    "weiterhin": 1243,
    "beide": 1244,
    "Met@@": 1245,
    "Kol@@": 1246,
    "nächsten": 1247,
    "iv@@": 1248,
    "Form": 1249,
    "teten": 1250,
    "namens": 1251,
    "ktion@@": 1252,
    "alt@@": 1253,
    "aten": 1254,
    "Spieler": 1255,
    "fl@@": 1256,
    "sowie": 1257,
    "Scho@@": 1258,
    "Ph@@": 1259,
    "gleich@@": 1260,
    "Wasser": 1261,
    "ans": 1262,
    "alis@@": 1263,
    "mal": 1264,
    "ey": 1265,
    "po@@": 1266,
    "bu@@": 1267,
    "all": 1268,
    "Seite": 1269,
    "ex@@": 1270,
    "County": 1271,
    "Sc@@": 1272,
    "Rolle": 1273,
    "kten": 1274,
    "cher": 1275,
    "schließlich": 1276,
    "ystem@@": 1277,
    "ron@@": 1278,
    "Haus": 1279,
    "ov@@": 1280,
    "Ex@@": 1281,
    "ut": 1282,
    "schrei@@": 1283,
    "oo@@": 1284,
    "olog@@": 1285,
    "lte": 1286,
    "Serie": 1287,
    "spro@@": 1288,
    "iss@@": 1289,
    "bau@@": 1290,
    "Süd@@": 1291,
    "Kn@@": 1292,
    "Col@@": 1293,
    "wieder@@": 1294,
    "schw@@": 1295,
    "bin@@": 1296,
    "Regel": 1297,
    "Person": 1298,
    "Karriere": 1299,
    "ob": 1300,
    "geboren": 1301,
    "ersch@@": 1302,
    "ang": 1303,
    "ali@@": 1304,
    "eigenen": 1305,
    "Beispiel": 1306,
    "sion@@": 1307,
    "acht": 1308,
    "Drei": 1309,
    "trägt": 1310,
    "stellte": 1311,
    "Sen@@": 1312,
    "ück@@": 1313,
    "plat@@": 1314,
    "los@@": 1315,
    "etz@@": 1316,
    "Ser@@": 1317,
    "ser@@": 1318,
    "Regi@@": 1319,
    "üb@@": 1320,
    "–": 1321,
    "gung": 1322,
    "stre@@": 1323,
    "wirklich": 1324,
    "w": 1325,
    "gewann": 1326,
    "ckte": 1327,
    "Bri@@": 1328,
    "sehen": 1329,
    "weit": 1330,
    "sor@@": 1331,
    "ath@@": 1332,
    "findet": 1333,
    "ess@@": 1334,
    "Andere": 1335,
    "sh@@": 1336,
    "off@@": 1337,
    "ehr@@": 1338,
    "selben": 1339,
    "Hin@@": 1340,
    "Gegen@@": 1341,
    "zeu@@": 1342,
    "cke@@": 1343,
    "ander@@": 1344,
    "stark": 1345,
    "arr@@": 1346,
    "University": 1347,
    "Schw@@": 1348,
    "Fluss": 1349,
    "Colle@@": 1350,
    "gek@@": 1351,
    "Te@@": 1352,
    "Reg@@": 1353,
    "Tod": 1354,
    "chte": 1355,
    "Bra@@": 1356,
    "liches": 1357,
    "ks": 1358,
    "Lied": 1359,
    "mehreren": 1360,
    "Jahr@@": 1361,
    "r": 1362,
    "nah@@": 1363,
    "gegen@@": 1364,
    "Arten": 1365,
    "lung": 1366,
    "Ihnen": 1367,
    "oh@@": 1368,
    "Mittel@@": 1369,
    "her": 1370,
    "ele@@": 1371,
    "zweiten": 1372,
    "seit": 1373,
    "nung": 1374,
    "are": 1375,
    "Groß@@": 1376,
    "leg@@": 1377,
    "verfügt": 1378,
    "nehmen@@": 1379,
    "Man": 1380,
    "An": 1381,
    "äl@@": 1382,
    "ähr@@": 1383,
    "zweite": 1384,
    "ou@@": 1385,
    "Hei@@": 1386,
    "fü@@": 1387,
    "fer": 1388,
    "fall@@": 1389,
    "weniger": 1390,
    "ffe@@": 1391,
    "bietet": 1392,
    "versch@@": 1393,
    "eln@@": 1394,
    "amp@@": 1395,
    "yn@@": 1396,
    "hel@@": 1397,
    "ba@@": 1398,
    "So": 1399,
    "hol@@": 1400,
    "Menschen@@": 1401,
    "?@@": 1402,
    "zieh@@": 1403,
    "gr@@": 1404,
    "zusammen": 1405,
    "zeug@@": 1406,
    "ursprünglich": 1407,
    "schen@@": 1408,
    "dan@@": 1409,
    "kre@@": 1410,
    "wal@@": 1411,
    "schaff@@": 1412,
    "enb@@": 1413,
    "Regierung": 1414,
    "Hal@@": 1415,
    "Ku@@": 1416,
    "entwick@@": 1417,
    "Mitglieder": 1418,
    "Hu@@": 1419,
    "sieben": 1420,
    "one": 1421,
    "Liste": 1422,
    "Gr@@": 1423,
    "Ant@@": 1424,
    "hoch@@": 1425,
    "Tochter": 1426,
    "nahmen": 1427,
    "bald": 1428,
    "Heute": 1429,
    "Bus@@": 1430,
    "stra@@": 1431,
    "eg@@": 1432,
    "tungen": 1433,
    "weißen": 1434,
    "tungs@@": 1435,
    "no@@": 1436,
    "gemein@@": 1437,
    "Kri@@": 1438,
    "York": 1439,
    "Welt": 1440,
    "fa@@": 1441,
    "Zwei@@": 1442,
    "Dis@@": 1443,
    "rit@@": 1444,
    "Version": 1445,
    "weise": 1446,
    "paar": 1447,
    "des@@": 1448,
    "Tor@@": 1449,
    "Cor@@": 1450,
    "schul@@": 1451,
    "Wor@@": 1452,
    "Pal@@": 1453,
    "Fe@@": 1454,
    "gten": 1455,
    "Um": 1456,
    "US@@": 1457,
    "v": 1458,
    "tet": 1459,
    "bedeutet": 1460,
    "Plat@@": 1461,
    "vil@@": 1462,
    "Sport@@": 1463,
    "art@@": 1464,
    "Fra@@": 1465,
    "ja@@": 1466,
    "Hemd": 1467,
    "Sol@@": 1468,
    "ott@@": 1469,
    "ologie": 1470,
    "Kor@@": 1471,
    "Begriff": 1472,
    "ville": 1473,
    "oren": 1474,
    "Sei@@": 1475,
    "komm@@": 1476,
    "enthält": 1477,
    "blieb": 1478,
    "spre@@": 1479,
    "meinen": 1480,
    "erfolg@@": 1481,
    "Dra@@": 1482,
    "wenig": 1483,
    "umfasst": 1484,
    "neu@@": 1485,
    "kleiner": 1486,
    "erten": 1487,
    "Ak@@": 1488,
    "hinter": 1489,
    "erin": 1490,
    "det": 1491,
    "bereits": 1492,
    "tritt": 1493,
    "setzte": 1494,
    "normalerweise": 1495,
    "anzu@@": 1496,
    "loss@@": 1497,
    "Frau@@": 1498,
    "gut@@": 1499,
    "enti@@": 1500,
    "Sti@@": 1501,
    "Bezirk": 1502,
    "Yor@@": 1503,
    "New@@": 1504,
    "gang": 1505,
    "ender": 1506,
    "Che@@": 1507,
    "ett": 1508,
    "Wohn@@": 1509,
    "Kom@@": 1510,
    "berei@@": 1511,
    "ative": 1512,
    "Bre@@": 1513,
    "sto@@": 1514,
    "schaften": 1515,
    "onen": 1516,
    "Da": 1517,
    "sah": 1518,
    "ci@@": 1519,
    "schu@@": 1520,
    "besten": 1521,
    "ohn@@": 1522,
    "ad": 1523,
    "zurück": 1524,
    "stei@@": 1525,
    "wuchs": 1526,
    "sion": 1527,
    "Kin@@": 1528,
    "Ben@@": 1529,
    "vis@@": 1530,
    "jeder": 1531,
    "ier": 1532,
    "gar@@": 1533,
    "ep@@": 1534,
    "ßen@@": 1535,
    "ren@@": 1536,
    "grün@@": 1537,
    "geschloss@@": 1538,
    "bel": 1539,
    "cke": 1540,
    "Wort": 1541,
    "Pat@@": 1542,
    "Pap@@": 1543,
    "Lehr@@": 1544,
    "Band@@": 1545,
    "roten": 1546,
    "inter@@": 1547,
    "Is@@": 1548,
    "Hel@@": 1549,
    "ät@@": 1550,
    "ry": 1551,
    "Ä@@": 1552,
    "ma": 1553,
    "kehr@@": 1554,
    "he": 1555,
    "Mal": 1556,
    "Buch@@": 1557,
    "Bruder": 1558,
    "zeigt": 1559,
    "prä@@": 1560,
    "ette": 1561,
    "Ke@@": 1562,
    "Bal@@": 1563,
    "süd@@": 1564,
    "schie@@": 1565,
    "ot": 1566,
    "gehör@@": 1567,
    "weiß@@": 1568,
    "od@@": 1569,
    "Kunst@@": 1570,
    "ßen": 1571,
    "ra": 1572,
    "ität": 1573,
    "größten": 1574,
    "Mein": 1575,
    "rin@@": 1576,
    "Team": 1577,
    "Pri@@": 1578,
    "ac@@": 1579,
    "wäre": 1580,
    "hande@@": 1581,
    "errei@@": 1582,
    "diente": 1583,
    "by@@": 1584,
    "arbeiten": 1585,
    "Mus@@": 1586,
    "Ed@@": 1587,
    "wider@@": 1588,
    "produz@@": 1589,
    "oten": 1590,
    "cher@@": 1591,
    "hen": 1592,
    "aufgrund": 1593,
    "Weg": 1594,
    "Universit@@": 1595,
    "einmal": 1596,
    "Pu@@": 1597,
    "Kirche": 1598,
    "Gi@@": 1599,
    "schei@@": 1600,
    "gerade": 1601,
    "fra@@": 1602,
    "Hier": 1603,
    ")": 1604,
    "mehr@@": 1605,
    "bra@@": 1606,
    "blauen": 1607,
    "Fin@@": 1608,
    "Dat@@": 1609,
    "All@@": 1610,
    "äre": 1611,
    "doch": 1612,
    "ats@@": 1613,
    "wär@@": 1614,
    "von@@": 1615,
    "kur@@": 1616,
    "ham": 1617,
    "Fußball@@": 1618,
    "tig": 1619,
    "ande@@": 1620,
    "Prot@@": 1621,
    "met@@": 1622,
    "itä@@": 1623,
    "fiz@@": 1624,
    "Wil@@": 1625,
    "Lebens@@": 1626,
    "ons@@": 1627,
    "fand": 1628,
    "stellung": 1629,
    "hätte": 1630,
    "Staaten": 1631,
    "Jo@@": 1632,
    "Char@@": 1633,
    "eri@@": 1634,
    "Fall": 1635,
    "gende": 1636,
    "Insel": 1637,
    "win@@": 1638,
    "mü@@": 1639,
    "Sitz": 1640,
    "verheirat@@": 1641,
    "tei@@": 1642,
    "schle@@": 1643,
    "gilt": 1644,
    "leben@@": 1645,
    "ff": 1646,
    "ab": 1647,
    "stän@@": 1648,
    "ließ": 1649,
    "ktion": 1650,
    "junge": 1651,
    "schl@@": 1652,
    "mei@@": 1653,
    "Nachdem": 1654,
    "Jun@@": 1655,
    "Fol@@": 1656,
    "trau@@": 1657,
    "sollten": 1658,
    "William": 1659,
    "Bahn@@": 1660,
    "cks": 1661,
    "Sand@@": 1662,
    "machen": 1663,
    "ker@@": 1664,
    "Straß@@": 1665,
    "Person@@": 1666,
    "James": 1667,
    "Auto": 1668,
    "bre@@": 1669,
    "allem": 1670,
    "The@@": 1671,
    "Sha@@": 1672,
    "etwa": 1673,
    "City": 1674,
    "zw@@": 1675,
    "Tu@@": 1676,
    "pa@@": 1677,
    "mor@@": 1678,
    "ik": 1679,
    "dazu": 1680,
    "Na@@": 1681,
    "ähn@@": 1682,
    "mög@@": 1683,
    "fahren": 1684,
    "angeb@@": 1685,
    "West": 1686,
    "National": 1687,
    "George": 1688,
    "soll": 1689,
    "kor@@": 1690,
    "dr@@": 1691,
    "Schu@@": 1692,
    "Gl@@": 1693,
    "großer": 1694,
    "groß@@": 1695,
    "für@@": 1696,
    "van@@": 1697,
    "lä@@": 1698,
    "los": 1699,
    "denk@@": 1700,
    "ball@@": 1701,
    "anischen": 1702,
    "spe@@": 1703,
    "gs": 1704,
    "Spe@@": 1705,
    "ill": 1706,
    "cker@@": 1707,
    "Ur@@": 1708,
    "Entwicklung": 1709,
    "gewor@@": 1710,
    "Danach": 1711,
    "Ca@@": 1712,
    "nis@@": 1713,
    "amerikanischen": 1714,
    "Präsident": 1715,
    "Partei": 1716,
    "Op@@": 1717,
    "lauf@@": 1718,
    "hinaus": 1719,
    "ganze": 1720,
    "besonders": 1721,
    "kurz": 1722,
    "indem": 1723,
    "darunter": 1724,
    "Not@@": 1725,
    "oni@@": 1726,
    "leben": 1727,
    "Verbindung": 1728,
    "Mehrere": 1729,
    "Gel@@": 1730,
    "Bro@@": 1731,
    "zahl@@": 1732,
    "hand@@": 1733,
    "Tre@@": 1734,
    "Far@@": 1735,
    "Wel@@": 1736,
    "ford": 1737,
    "National@@": 1738,
    "Durch": 1739,
    "verkauf@@": 1740,
    "unterstütz@@": 1741,
    "por@@": 1742,
    "mittel@@": 1743,
    "aler": 1744,
    "üh@@": 1745,
    "uren": 1746,
    "gesehen": 1747,
    "elt": 1748,
    "bereit@@": 1749,
    "König@@": 1750,
    "wirk@@": 1751,
    "recht@@": 1752,
    "geben": 1753,
    "Meine": 1754,
    "sieht": 1755,
    "leicht": 1756,
    "mel@@": 1757,
    "fte": 1758,
    "ente": 1759,
    "stellen": 1760,
    "lichkeit": 1761,
    "Kl@@": 1762,
    "Christ@@": 1763,
    "belieb@@": 1764,
    "Mi@@": 1765,
    "Bru@@": 1766,
    "Bahnhof": 1767,
    "kar@@": 1768,
    "ies": 1769,
    "anc@@": 1770,
    "Unter": 1771,
    "kleines": 1772,
    "hielt": 1773,
    "Com@@": 1774,
    "ris@@": 1775,
    "entlang": 1776,
    "Tr@@": 1777,
    "Kur@@": 1778,
    "Hol@@": 1779,
    "Aus": 1780,
    "Ac@@": 1781,
    "hen@@": 1782,
    "Rich@@": 1783,
    "wahr@@": 1784,
    "ure": 1785,
    "leb@@": 1786,
    "kehrte": 1787,
    "az@@": 1788,
    "Cre@@": 1789,
    "zahlreiche": 1790,
    "selbst@@": 1791,
    "lag@@": 1792,
    "ku@@": 1793,
    "ings@@": 1794,
    "Obwohl": 1795,
    "Bei@@": 1796,
    "stimm@@": 1797,
    "weiß": 1798,
    "kti@@": 1799,
    "flü@@": 1800,
    "Spiele": 1801,
    "Cro@@": 1802,
    "Bild@@": 1803,
    "pol@@": 1804,
    "gri@@": 1805,
    "ant": 1806,
    "alte": 1807,
    "Rock@@": 1808,
    "bek@@": 1809,
    "ate": 1810,
    "sse": 1811,
    "bt": 1812,
    "Show": 1813,
    "North": 1814,
    "to": 1815,
    "hier@@": 1816,
    "Kopf@@": 1817,
    "schi@@": 1818,
    "schafts@@": 1819,
    "San": 1820,
    "Hor@@": 1821,
    "Poli@@": 1822,
    "Mu@@": 1823,
    "studierte": 1824,
    "pre@@": 1825,
    "kal@@": 1826,
    "erw@@": 1827,
    "bor@@": 1828,
    "Wieder@@": 1829,
    "weiteren": 1830,
    "jedes": 1831,
    "ganzen": 1832,
    "Flü@@": 1833,
    "läuft": 1834,
    "ct@@": 1835,
    "Wer": 1836,
    "Produ@@": 1837,
    "Part@@": 1838,
    "Fernseh@@": 1839,
    "Eltern": 1840,
    "schwarzen": 1841,
    "mann@@": 1842,
    "kat@@": 1843,
    "gebil@@": 1844,
    "ften": 1845,
    "chter@@": 1846,
    "ativen": 1847,
    "Stu@@": 1848,
    "Hand": 1849,
    "unden": 1850,
    "Stre@@": 1851,
    "Linie": 1852,
    "Ball@@": 1853,
    "nieder@@": 1854,
    "ihres": 1855,
    "hän@@": 1856,
    "Wer@@": 1857,
    "Sprache": 1858,
    "Saison": 1859,
    "Krieg": 1860,
    "satz@@": 1861,
    "mp@@": 1862,
    "kun@@": 1863,
    "fährt": 1864,
    "X@@": 1865,
    "Schl@@": 1866,
    "Bürger@@": 1867,
    "öffentlichen": 1868,
    "shi@@": 1869,
    "mer": 1870,
    "bie@@": 1871,
    "Wahl@@": 1872,
    "Ros@@": 1873,
    "Ir@@": 1874,
    "woll@@": 1875,
    "lag": 1876,
    "San@@": 1877,
    "Nur": 1878,
    "Fer@@": 1879,
    "wesen@@": 1880,
    "rö@@": 1881,
    "South": 1882,
    "reg@@": 1883,
    "gegenüber": 1884,
    "ash@@": 1885,
    "amen": 1886,
    "Tran@@": 1887,
    "Mis@@": 1888,
    "the@@": 1889,
    "sol@@": 1890,
    "gän@@": 1891,
    "Tro@@": 1892,
    "stellt": 1893,
    "arbeitet": 1894,
    "ump@@": 1895,
    "nachdem": 1896,
    "drei@@": 1897,
    "schau@@": 1898,
    "brachte": 1899,
    "Verwendung": 1900,
    "Prä@@": 1901,
    "Durch@@": 1902,
    "ort": 1903,
    "je": 1904,
    "Platz": 1905,
    "Augen": 1906,
    "nimmt": 1907,
    "haus@@": 1908,
    "halb": 1909,
    "River": 1910,
    "Berg@@": 1911,
    "nahe": 1912,
    "alter": 1913,
    "Tour@@": 1914,
    "ß": 1915,
    "Arbeit@@": 1916,
    "far@@": 1917,
    "Ton@@": 1918,
    "Kir@@": 1919,
    "ssen": 1920,
    "scheint": 1921,
    "fül@@": 1922,
    "erst": 1923,
    "eller": 1924,
    "System": 1925,
    "nor@@": 1926,
    "don@@": 1927,
    "ale@@": 1928,
    "Richtung": 1929,
    "Gemeinde@@": 1930,
    "sei": 1931,
    "fro@@": 1932,
    "begra@@": 1933,
    "Ele@@": 1934,
    "werk@@": 1935,
    "dafür": 1936,
    "also": 1937,
    "Go@@": 1938,
    "Dem@@": 1939,
    "Club": 1940,
    "einander@@": 1941,
    "bit@@": 1942,
    "öff@@": 1943,
    "fri@@": 1944,
    "wichtige": 1945,
    "unk@@": 1946,
    "trag@@": 1947,
    "sc@@": 1948,
    "klein@@": 1949,
    "ins@@": 1950,
    "gleichen": 1951,
    "fil@@": 1952,
    "Geschäfts@@": 1953,
    "sech@@": 1954,
    "London": 1955,
    "Gemein@@": 1956,
    "Eis@@": 1957,
    "tlich": 1958,
    "mu@@": 1959,
    "il": 1960,
    "gesamten": 1961,
    "geln": 1962,
    "Tal@@": 1963,
    "Sprach@@": 1964,
    "Kaliforn@@": 1965,
    "wi@@": 1966,
    "spä@@": 1967,
    "ach": 1968,
    "offen@@": 1969,
    "Weise": 1970,
    "Pol@@": 1971,
    "Gegend": 1972,
    "Gal@@": 1973,
    "Alb@@": 1974,
    "wert@@": 1975,
    "Mut@@": 1976,
    "Ker@@": 1977,
    "Jer@@": 1978,
    "ziemlich": 1979,
    "irgend@@": 1980,
    "gu@@": 1981,
    "Dort": 1982,
    "zeiten": 1983,
    "sitzen": 1984,
    "ate@@": 1985,
    "Schulen": 1986,
    "unten": 1987,
    "sogar": 1988,
    "organis@@": 1989,
    "lungen": 1990,
    "entfern@@": 1991,
    "ds@@": 1992,
    "Holz@@": 1993,
    "Geld": 1994,
    "Geh@@": 1995,
    "Abschluss": 1996,
    "lten": 1997,
    "kop@@": 1998,
    "gesamte": 1999,
    "ator@@": 2000,
    "Si@@": 2001,
    "jeden": 2002,
    "fäl@@": 2003,
    "ei": 2004,
    "Ist": 2005,
    "Dan@@": 2006,
    "usi@@": 2007,
    "direkt": 2008,
    "besser": 2009,
    "Plan@@": 2010,
    "Mac@@": 2011,
    "Fest@@": 2012,
    "A.": 2013,
    "neu": 2014,
    "gern": 2015,
    "anz": 2016,
    "Unternehmen@@": 2017,
    "san@@": 2018,
    "pl@@": 2019,
    "größ@@": 2020,
    "Sub@@": 2021,
    "Kre@@": 2022,
    "sam@@": 2023,
    "enten": 2024,
    "zer": 2025,
    "stelle": 2026,
    "kam@@": 2027,
    "befand": 2028,
    "ast": 2029,
    "Zentrum": 2030,
    "Robert": 2031,
    "such@@": 2032,
    "sche@@": 2033,
    "ktionen": 2034,
    "ug@@": 2035,
    "ms": 2036,
    "lassen": 2037,
    "Darüber": 2038,
    "ham@@": 2039,
    "früher": 2040,
    "dabei": 2041,
    "außerhalb": 2042,
    "Kap@@": 2043,
    "schließ@@": 2044,
    "elte": 2045,
    "blei@@": 2046,
    "Can@@": 2047,
    "Arm@@": 2048,
    "öffentliche": 2049,
    "verlie@@": 2050,
    "stammt": 2051,
    "gend": 2052,
    "druck@@": 2053,
    "anische": 2054,
    "Dinge": 2055,
    "Bereich": 2056,
    "tie@@": 2057,
    "sse@@": 2058,
    "letz@@": 2059,
    "klar@@": 2060,
    "öl@@": 2061,
    "ße": 2062,
    "wel@@": 2063,
    "tel": 2064,
    "immer@@": 2065,
    "haus": 2066,
    "genen": 2067,
    "bestand": 2068,
    "anderer": 2069,
    "Zum": 2070,
    "genden": 2071,
    "els": 2072,
    "Sam@@": 2073,
    "ser": 2074,
    "lern@@": 2075,
    "ieh@@": 2076,
    "ed": 2077,
    "ckt": 2078,
    "bare": 2079,
    "Leute": 2080,
    "unde": 2081,
    "kenn@@": 2082,
    "Pla@@": 2083,
    "Nam@@": 2084,
    "Anti@@": 2085,
    "lebte": 2086,
    "funktion@@": 2087,
    "Tex@@": 2088,
    "Lieder": 2089,
    "üt@@": 2090,
    "ön@@": 2091,
    "asse": 2092,
    "Tur@@": 2093,
    "Bat@@": 2094,
    "kamen": 2095,
    "gebiet": 2096,
    "erster": 2097,
    "Prin@@": 2098,
    "No@@": 2099,
    "Mag@@": 2100,
    "halten": 2101,
    "haf@@": 2102,
    "by": 2103,
    "Jeder": 2104,
    "wahrscheinlich": 2105,
    "hast": 2106,
    "Sho@@": 2107,
    "Jungen": 2108,
    "Fil@@": 2109,
    "Artikel": 2110,
    "Ost@@": 2111,
    "Mer@@": 2112,
    "Gast@@": 2113,
    "Doch": 2114,
    "Cal@@": 2115,
    "ums": 2116,
    "schein@@": 2117,
    "insbesondere": 2118,
    "einfach@@": 2119,
    "ame": 2120,
    "Cl@@": 2121,
    "verk@@": 2122,
    "trug": 2123,
    "liegen": 2124,
    "finanz@@": 2125,
    "Wol@@": 2126,
    "Vor": 2127,
    "Hü@@": 2128,
    "om": 2129,
    "oben": 2130,
    "ment": 2131,
    "erneut": 2132,
    "On@@": 2133,
    "Natur@@": 2134,
    "Men@@": 2135,
    "yp@@": 2136,
    "frühen": 2137,
    "eher": 2138,
    "Hauptstadt": 2139,
    "Brü@@": 2140,
    "zäh@@": 2141,
    "schla@@": 2142,
    "häl@@": 2143,
    "ged@@": 2144,
    "dungen": 2145,
    "Suche": 2146,
    "Post@@": 2147,
    "Fisch@@": 2148,
    "zogen": 2149,
    "wollte": 2150,
    "mischen": 2151,
    "it": 2152,
    "inen": 2153,
    "dem@@": 2154,
    "Süden": 2155,
    "Gre@@": 2156,
    "vollständig": 2157,
    "techn@@": 2158,
    "lage": 2159,
    "ina": 2160,
    "Ter@@": 2161,
    "Flughafen": 2162,
    "lässt": 2163,
    "iti@@": 2164,
    "Song": 2165,
    "Nacht": 2166,
    "Bü@@": 2167,
    "würden": 2168,
    "bau": 2169,
    "Station": 2170,
    "Paar": 2171,
    "Großteil": 2172,
    "Boden": 2173,
    "spiel": 2174,
    "fik@@": 2175,
    "betra@@": 2176,
    "ase": 2177,
    "Super@@": 2178,
    "Gro@@": 2179,
    "leh@@": 2180,
    "erklär@@": 2181,
    "best@@": 2182,
    "Programm": 2183,
    "Paul": 2184,
    "Gebie@@": 2185,
    ")@@": 2186,
    "weil": 2187,
    "istischen": 2188,
    "hervor@@": 2189,
    "genau": 2190,
    "Grupp@@": 2191,
    "Allgemeinen": 2192,
    "tragen": 2193,
    "teil": 2194,
    "ssi@@": 2195,
    "bro@@": 2196,
    "ay@@": 2197,
    "Tage": 2198,
    "König": 2199,
    "Hy@@": 2200,
    "tere": 2201,
    "ev@@": 2202,
    "Web@@": 2203,
    "Schn@@": 2204,
    "Mau@@": 2205,
    "öst@@": 2206,
    "sit@@": 2207,
    "nord@@": 2208,
    "Son@@": 2209,
    "Lau@@": 2210,
    "Komp@@": 2211,
    "merk@@": 2212,
    "deut@@": 2213,
    "dat@@": 2214,
    "Gold@@": 2215,
    "illi@@": 2216,
    "gute": 2217,
    "feu@@": 2218,
    "ban@@": 2219,
    "Playlist": 2220,
    "Motor@@": 2221,
    "Lan@@": 2222,
    "Bl@@": 2223,
    "verf@@": 2224,
    "rieb@@": 2225,
    "punkt": 2226,
    "kul@@": 2227,
    "Werk@@": 2228,
    "Theat@@": 2229,
    "State": 2230,
    "Ran@@": 2231,
    "mö@@": 2232,
    "issen": 2233,
    "field": 2234,
    "ech@@": 2235,
    "Studenten": 2236,
    "Renn@@": 2237,
    "Män@@": 2238,
    "Fü@@": 2239,
    "weg": 2240,
    "tierte": 2241,
    "ka": 2242,
    "jede": 2243,
    "itten@@": 2244,
    "gene": 2245,
    "besu@@": 2246,
    "ana": 2247,
    "alität": 2248,
    "Zusammen@@": 2249,
    "Friedhof": 2250,
    "England": 2251,
    "Über": 2252,
    "unsere": 2253,
    "sofort": 2254,
    "recht": 2255,
    "ion": 2256,
    "gend@@": 2257,
    "Projekt": 2258,
    "Gri@@": 2259,
    "Einzel@@": 2260,
    "verw@@": 2261,
    "tiger": 2262,
    "schwar@@": 2263,
    "iet@@": 2264,
    "einander": 2265,
    "stes": 2266,
    "oph@@": 2267,
    "ielle": 2268,
    "enz": 2269,
    "bitte": 2270,
    "ahl@@": 2271,
    "Spielen": 2272,
    "Informationen": 2273,
    "Aut@@": 2274,
    "bleibt": 2275,
    "aufzu@@": 2276,
    "Pl@@": 2277,
    "Kopf": 2278,
    "Hinter@@": 2279,
    "David": 2280,
    "Ban@@": 2281,
    "‚@@": 2282,
    "wunder@@": 2283,
    "wenige": 2284,
    "regelmäßig": 2285,
    "ligen": 2286,
    "dungs@@": 2287,
    "Restaurant": 2288,
    "verfüg@@": 2289,
    "schn@@": 2290,
    "antwortete": 2291,
    "Syn@@": 2292,
    "Krie@@": 2293,
    "äm@@": 2294,
    "tliche": 2295,
    "empf@@": 2296,
    "Weitere": 2297,
    "Ort@@": 2298,
    "Lake": 2299,
    "Han@@": 2300,
    "Cap@@": 2301,
    "ären": 2302,
    "wechsel@@": 2303,
    "ta": 2304,
    "ir": 2305,
    "fall": 2306,
    "daher": 2307,
    "Rennen": 2308,
    "Augen@@": 2309,
    "zug": 2310,
    "woh@@": 2311,
    "werk": 2312,
    "tes@@": 2313,
    "gehörte": 2314,
    "Ga@@": 2315,
    "unbe@@": 2316,
    "strah@@": 2317,
    "nehmen": 2318,
    "bst@@": 2319,
    "Woche": 2320,
    "Warum": 2321,
    "Michael": 2322,
    "Medi@@": 2323,
    "ty": 2324,
    "spieler": 2325,
    "solche": 2326,
    "sagen": 2327,
    "krit@@": 2328,
    "ischen@@": 2329,
    "ht@@": 2330,
    "heiratete": 2331,
    "Straßen@@": 2332,
    "Stein@@": 2333,
    "Por@@": 2334,
    "Norden": 2335,
    "London@@": 2336,
    "Herr@@": 2337,
    "Haben": 2338,
    "wissen@@": 2339,
    "verwenden": 2340,
    "ursprünglichen": 2341,
    "musste": 2342,
    "mitt@@": 2343,
    "isten@@": 2344,
    "gerne": 2345,
    "Raum@@": 2346,
    "Gesicht": 2347,
    "stein@@": 2348,
    "springt": 2349,
    "raum": 2350,
    "ors": 2351,
    "isten": 2352,
    "hin": 2353,
    "gehörten": 2354,
    "dro@@": 2355,
    "Stand@@": 2356,
    "Monate": 2357,
    "Grund": 2358,
    "wach@@": 2359,
    "tö@@": 2360,
    "line@@": 2361,
    "har@@": 2362,
    "Roll@@": 2363,
    "Bas@@": 2364,
    "östlich": 2365,
    "stab@@": 2366,
    "re": 2367,
    "per": 2368,
    "bri@@": 2369,
    "alt": 2370,
    "Unterstützung": 2371,
    "Früh@@": 2372,
    "Del@@": 2373,
    "tri@@": 2374,
    "legte": 2375,
    "gesp@@": 2376,
    "dreh@@": 2377,
    "dies@@": 2378,
    "ckten": 2379,
    "app@@": 2380,
    "Mel@@": 2381,
    "Bücher": 2382,
    "zz@@": 2383,
    "ore": 2384,
    "ood@@": 2385,
    "ober@@": 2386,
    "akt@@": 2387,
    "Tisch": 2388,
    "Neben@@": 2389,
    "Fot@@": 2390,
    "Eisenbahn@@": 2391,
    "Bon@@": 2392,
    "stat@@": 2393,
    "mot@@": 2394,
    "minist@@": 2395,
    "drü@@": 2396,
    "bte": 2397,
    "Laufe": 2398,
    "Hun@@": 2399,
    "Geor@@": 2400,
    "ult@@": 2401,
    "ret@@": 2402,
    "langen": 2403,
    "herr@@": 2404,
    "Pil@@": 2405,
    "Gruppen": 2406,
    "wood": 2407,
    "Richard": 2408,
    "Mot@@": 2409,
    "rän@@": 2410,
    "onen@@": 2411,
    "deten": 2412,
    "art": 2413,
    "ank@@": 2414,
    "achten": 2415,
    "Str@@": 2416,
    "See": 2417,
    "Mad@@": 2418,
    "Folge": 2419,
    "ffen": 2420,
    "Teile": 2421,
    "vorbei@@": 2422,
    "ungsp@@": 2423,
    "ss": 2424,
    "sam": 2425,
    "komp@@": 2426,
    "geschla@@": 2427,
    "britischen": 2428,
    "brei@@": 2429,
    "Frank@@": 2430,
    "ms@@": 2431,
    "Stimm@@": 2432,
    "Gleich@@": 2433,
    "Gew@@": 2434,
    "Aufgrund": 2435,
    "schloss": 2436,
    "aden@@": 2437,
    "ade@@": 2438,
    "Titel@@": 2439,
    "verletz@@": 2440,
    "meinem": 2441,
    "kämpf@@": 2442,
    "konnten": 2443,
    "entwickelte": 2444,
    "aller": 2445,
    "Exp@@": 2446,
    "zerstör@@": 2447,
    "ore@@": 2448,
    "Zeitpunkt": 2449,
    "Teil@@": 2450,
    "Sor@@": 2451,
    "High@@": 2452,
    "zuvor": 2453,
    "ps": 2454,
    "plan@@": 2455,
    "kin@@": 2456,
    "gent@@": 2457,
    "ehemaligen": 2458,
    "Uni@@": 2459,
    "Stil": 2460,
    "Position": 2461,
    "Nieder@@": 2462,
    "Hom@@": 2463,
    "Gei@@": 2464,
    "tau@@": 2465,
    "fu@@": 2466,
    "Pra@@": 2467,
    "Pet@@": 2468,
    "Museum": 2469,
    "Hil@@": 2470,
    "Charles": 2471,
    "Besitz": 2472,
    "Anzahl": 2473,
    "wä@@": 2474,
    "mag@@": 2475,
    "innen": 2476,
    "ings": 2477,
    "Thomas": 2478,
    "Künstler": 2479,
    "Fo@@": 2480,
    "seite": 2481,
    "moder@@": 2482,
    "hy@@": 2483,
    "fs@@": 2484,
    "Oh@@": 2485,
    "Gran@@": 2486,
    "welche": 2487,
    "Proble@@": 2488,
    "Herr": 2489,
    "voller": 2490,
    "sprechen": 2491,
    "ole@@": 2492,
    "nam@@": 2493,
    "einzu@@": 2494,
    "danach": 2495,
    "cker": 2496,
    "Vier": 2497,
    "Stimme": 2498,
    "Bor@@": 2499,
    "‘": 2500,
    "westlichen": 2501,
    "tag@@": 2502,
    "spr@@": 2503,
    "lokalen": 2504,
    "ht": 2505,
    "gebie@@": 2506,
    "Werk": 2507,
    "use@@": 2508,
    "ters": 2509,
    "niedri@@": 2510,
    "mann": 2511,
    "ling": 2512,
    "kol@@": 2513,
    "auer": 2514,
    "Raum": 2515,
    "Ess@@": 2516,
    "Don@@": 2517,
    "Daher": 2518,
    "äh@@": 2519,
    "produ@@": 2520,
    "nis": 2521,
    "ison": 2522,
    "geschrieben": 2523,
    "elektr@@": 2524,
    "baren": 2525,
    "Wiedergabeliste": 2526,
    "öt@@": 2527,
    "Ö@@": 2528,
    "tiert": 2529,
    "dy": 2530,
    "arten": 2531,
    "ya": 2532,
    "sprach": 2533,
    "nte": 2534,
    "brau@@": 2535,
    "Künst@@": 2536,
    "Fort@@": 2537,
    "Armee": 2538,
    "ys@@": 2539,
    "verwal@@": 2540,
    "ls@@": 2541,
    "fragte": 2542,
    "erzäh@@": 2543,
    "aktiv@@": 2544,
    "Wind@@": 2545,
    "Que@@": 2546,
    "Fuß@@": 2547,
    "Flu@@": 2548,
    "wichtigsten": 2549,
    "igkeit": 2550,
    "co": 2551,
    "annte": 2552,
    "Ang@@": 2553,
    "zeichen": 2554,
    "west@@": 2555,
    "verbess@@": 2556,
    "sport@@": 2557,
    "fäh@@": 2558,
    "Chin@@": 2559,
    "Allerdings": 2560,
    "tun": 2561,
    "stadt": 2562,
    "kün@@": 2563,
    "gingen": 2564,
    "gegrün@@": 2565,
    "amer@@": 2566,
    "Privat@@": 2567,
    "mier@@": 2568,
    "laufen": 2569,
    "heiten": 2570,
    "gei@@": 2571,
    "fuhr": 2572,
    "eter@@": 2573,
    "bü@@": 2574,
    "Ster@@": 2575,
    "Red@@": 2576,
    "Grenze": 2577,
    "Geld@@": 2578,
    "Filme": 2579,
    "B.": 2580,
    "ände": 2581,
    "lagen": 2582,
    "form": 2583,
    "dd@@": 2584,
    "Vi@@": 2585,
    "Selbst@@": 2586,
    "Rad@@": 2587,
    "Provinz": 2588,
    "tigte": 2589,
    "scher": 2590,
    "neun": 2591,
    "istische": 2592,
    "fal@@": 2593,
    "erkenn@@": 2594,
    "erforder@@": 2595,
    "erei": 2596,
    "auss@@": 2597,
    "Staats@@": 2598,
    "ums@@": 2599,
    "strei@@": 2600,
    "ator": 2601,
    "anders": 2602,
    "Sur@@": 2603,
    "Sil@@": 2604,
    "Schüler": 2605,
    "Mas@@": 2606,
    "Kal@@": 2607,
    "Gesetz@@": 2608,
    "zy@@": 2609,
    "zur@@": 2610,
    "ym@@": 2611,
    "spie@@": 2612,
    "lö@@": 2613,
    "erinn@@": 2614,
    "dri@@": 2615,
    "dessen": 2616,
    "bahn@@": 2617,
    "Mil@@": 2618,
    "Form@@": 2619,
    "Deut@@": 2620,
    "zurückzu@@": 2621,
    "zunächst": 2622,
    "fon@@": 2623,
    "erz@@": 2624,
    "eigen@@": 2625,
    "Regen@@": 2626,
    "Proje@@": 2627,
    "zig": 2628,
    "wus@@": 2629,
    "schwer": 2630,
    "ow": 2631,
    "aren": 2632,
    "amerikanische": 2633,
    "Nicht": 2634,
    "Freund": 2635,
    "Bevölkerung": 2636,
    "App@@": 2637,
    "veröffentlichte": 2638,
    "sti@@": 2639,
    "rief": 2640,
    "meister@@": 2641,
    "kom@@": 2642,
    "bess@@": 2643,
    "Mäd@@": 2644,
    "Erfolg": 2645,
    "mil@@": 2646,
    "liz@@": 2647,
    "issen@@": 2648,
    "heißt": 2649,
    "daran": 2650,
    "assi@@": 2651,
    "Veröffentlichung": 2652,
    "Street": 2653,
    "Bot@@": 2654,
    "zentr@@": 2655,
    "vie@@": 2656,
    "ston": 2657,
    "schwer@@": 2658,
    "führung": 2659,
    "bung": 2660,
    "behaup@@": 2661,
    "Tag@@": 2662,
    "Roman": 2663,
    "Los": 2664,
    "Kampf": 2665,
    "Hit@@": 2666,
    "Glo@@": 2667,
    "Arch@@": 2668,
    "wo@@": 2669,
    "tran@@": 2670,
    "selten@@": 2671,
    "pro": 2672,
    "Trotz": 2673,
    "Star@@": 2674,
    "Feld@@": 2675,
    "opp@@": 2676,
    "nahme": 2677,
    "ade": 2678,
    "Luft": 2679,
    "Kapit@@": 2680,
    "Fällen": 2681,
    "Freund@@": 2682,
    "Dorf@@": 2683,
    "Cha@@": 2684,
    "Blo@@": 2685,
    "umge@@": 2686,
    "chs@@": 2687,
    "ak": 2688,
    "Rom@@": 2689,
    "Rechts@@": 2690,
    "Distri@@": 2691,
    "yst@@": 2692,
    "lige": 2693,
    "einzigen": 2694,
    "Sit@@": 2695,
    "Schwester": 2696,
    "Lab@@": 2697,
    "1@@": 2698,
    "vielleicht": 2699,
    "testen": 2700,
    "politischen": 2701,
    "krie@@": 2702,
    "früheren": 2703,
    "Val@@": 2704,
    "Ob@@": 2705,
    "Indi@@": 2706,
    "Ide@@": 2707,
    "Dam@@": 2708,
    "Cat@@": 2709,
    "Arbeiten": 2710,
    "'": 2711,
    "tro@@": 2712,
    "grünen": 2713,
    "dlich": 2714,
    "cy": 2715,
    "ches": 2716,
    "burg": 2717,
    "ater": 2718,
    "Stat@@": 2719,
    "Schließlich": 2720,
    "Schauspiel@@": 2721,
    "Radi@@": 2722,
    "Frauen@@": 2723,
    "wort@@": 2724,
    "imm@@": 2725,
    "gewöhnlich": 2726,
    "ahn@@": 2727,
    "Tür@@": 2728,
    "Klein@@": 2729,
    "Jede": 2730,
    "Der@@": 2731,
    "kra@@": 2732,
    "jahr@@": 2733,
    "führten": 2734,
    "befin@@": 2735,
    "auszu@@": 2736,
    "anti@@": 2737,
    "Wetter": 2738,
    "Hall@@": 2739,
    "Führ@@": 2740,
    "Fel@@": 2741,
    "Dun@@": 2742,
    "Cra@@": 2743,
    "Clu@@": 2744,
    "worden": 2745,
    "voll": 2746,
    "typ@@": 2747,
    "sondern": 2748,
    "geschä@@": 2749,
    "defin@@": 2750,
    "allgemein": 2751,
    "Tochter@@": 2752,
    "Letz@@": 2753,
    "Em@@": 2754,
    "vo@@": 2755,
    "viel@@": 2756,
    "verein@@": 2757,
    "verd@@": 2758,
    "tigkeit": 2759,
    "schön@@": 2760,
    "ograph@@": 2761,
    "lt": 2762,
    "gelegenen": 2763,
    "draußen": 2764,
    "benen": 2765,
    "achte": 2766,
    "abzu@@": 2767,
    "Osten": 2768,
    "unterschiedliche": 2769,
    "ol": 2770,
    "mmer": 2771,
    "lokale": 2772,
    "fließt": 2773,
    "erwar@@": 2774,
    "denn": 2775,
    "ca": 2776,
    "arch@@": 2777,
    "Wat@@": 2778,
    "Rot@@": 2779,
    "Jap@@": 2780,
    "Gebäu@@": 2781,
    "Fun@@": 2782,
    "Familien@@": 2783,
    "tu@@": 2784,
    "lat@@": 2785,
    "folgte": 2786,
    "entde@@": 2787,
    "zü@@": 2788,
    "verm@@": 2789,
    "ungss@@": 2790,
    "gem": 2791,
    "führen": 2792,
    "folgt": 2793,
    "bs@@": 2794,
    "Tim@@": 2795,
    "See@@": 2796,
    "Rest": 2797,
    "Produktion": 2798,
    "Problem": 2799,
    "Ord@@": 2800,
    "Mur@@": 2801,
    "Alice": 2802,
    "wer": 2803,
    "steu@@": 2804,
    "stein": 2805,
    "lehr@@": 2806,
    "gang@@": 2807,
    "asen@@": 2808,
    "ary": 2809,
    "Vis@@": 2810,
    "verlor": 2811,
    "sprach@@": 2812,
    "gleich": 2813,
    "gers": 2814,
    "ee": 2815,
    "dritten": 2816,
    "Team@@": 2817,
    "Stil@@": 2818,
    "Geb@@": 2819,
    "Bank@@": 2820,
    "obwohl": 2821,
    "möglicherweise": 2822,
    "ichte": 2823,
    "gemeinsam": 2824,
    "Westen": 2825,
    "Werke": 2826,
    "Pen@@": 2827,
    "Militär@@": 2828,
    "Kleidung": 2829,
    "Bul@@": 2830,
    "ähnliche": 2831,
    "wobei": 2832,
    "schwier@@": 2833,
    "rech@@": 2834,
    "ling@@": 2835,
    "dest@@": 2836,
    "Wh@@": 2837,
    "Netz@@": 2838,
    "Il@@": 2839,
    "Ges@@": 2840,
    "General@@": 2841,
    "Dreh@@": 2842,
    "öpf@@": 2843,
    "will@@": 2844,
    "setzt": 2845,
    "entweder": 2846,
    "Wahl": 2847,
    "Tier@@": 2848,
    "Schwar@@": 2849,
    "Schiff@@": 2850,
    "Mr.": 2851,
    "Klass@@": 2852,
    "Den@@": 2853,
    "sionen": 2854,
    "sch": 2855,
    "kauf@@": 2856,
    "jedem": 2857,
    "buch@@": 2858,
    "Wochen": 2859,
    "Scha@@": 2860,
    "Arbeits@@": 2861,
    "läuf@@": 2862,
    "kri@@": 2863,
    "gefähr@@": 2864,
    "Hilfe": 2865,
    "Daten": 2866,
    "platz": 2867,
    "hö@@": 2868,
    "fr@@": 2869,
    "eigene": 2870,
    "alien@@": 2871,
    "Partei@@": 2872,
    "Bow@@": 2873,
    "zin@@": 2874,
    "spricht": 2875,
    "reichen": 2876,
    "ktiv@@": 2877,
    "chter": 2878,
    "bli@@": 2879,
    "beeinflus@@": 2880,
    "Laut": 2881,
    "Fall@@": 2882,
    "zweimal": 2883,
    "verbrei@@": 2884,
    "erhäl@@": 2885,
    "bist": 2886,
    "bestimm@@": 2887,
    "berühm@@": 2888,
    "anten@@": 2889,
    "Figur": 2890,
    "Ev@@": 2891,
    "Dor@@": 2892,
    "Autor": 2893,
    "sä@@": 2894,
    "schnell@@": 2895,
    "junger": 2896,
    "hor@@": 2897,
    "herum@@": 2898,
    "gere@@": 2899,
    "atur@@": 2900,
    "Win@@": 2901,
    "Video@@": 2902,
    "Leben@@": 2903,
    "wäl@@": 2904,
    "unterschie@@": 2905,
    "samm@@": 2906,
    "ington": 2907,
    "gin@@": 2908,
    "gaben": 2909,
    "eng": 2910,
    "del": 2911,
    "blo@@": 2912,
    "av@@": 2913,
    "anten": 2914,
    "Vol@@": 2915,
    "Typ@@": 2916,
    "Stück": 2917,
    "Punkt": 2918,
    "Hon@@": 2919,
    "wagen": 2920,
    "spiele": 2921,
    "mark@@": 2922,
    "bede@@": 2923,
    "Zur": 2924,
    "Tür": 2925,
    "Tö@@": 2926,
    "Thr@@": 2927,
    "Standort": 2928,
    "Shirt": 2929,
    "Samm@@": 2930,
    "Peter": 2931,
    "Nu@@": 2932,
    "Kampf@@": 2933,
    "Fi@@": 2934,
    "Dre@@": 2935,
    "A": 2936,
    "oper@@": 2937,
    "erhalten": 2938,
    "Sau@@": 2939,
    "Brücke": 2940,
    "Boden@@": 2941,
    "will": 2942,
    "teilung": 2943,
    "nten": 2944,
    "ney": 2945,
    "feh@@": 2946,
    "emp@@": 2947,
    "deren": 2948,
    "allerdings": 2949,
    "Manche": 2950,
    "Ball": 2951,
    "uns@@": 2952,
    "scht": 2953,
    "grund@@": 2954,
    "bezeichnet": 2955,
    "Wo@@": 2956,
    "Songs": 2957,
    "Seit": 2958,
    "Kranken@@": 2959,
    "Fluss@@": 2960,
    "Einfluss": 2961,
    "Bewer@@": 2962,
    "Bank": 2963,
    "ursprüngliche": 2964,
    "unver@@": 2965,
    "ont@@": 2966,
    "keits@@": 2967,
    "flu@@": 2968,
    "Vielleicht": 2969,
    "Schlacht": 2970,
    "Grün@@": 2971,
    "Erd@@": 2972,
    "Ali@@": 2973,
    "jen@@": 2974,
    "beginnt": 2975,
    "Thema": 2976,
    "Schlag@@": 2977,
    "Sat@@": 2978,
    "Organisation": 2979,
    "versamm@@": 2980,
    "rig@@": 2981,
    "fern@@": 2982,
    "erwähn@@": 2983,
    "Sar@@": 2984,
    "Provin@@": 2985,
    "Hän@@": 2986,
    "Finanz@@": 2987,
    "Drei@@": 2988,
    "Ath@@": 2989,
    "wander@@": 2990,
    "ktor@@": 2991,
    "kosten@@": 2992,
    "chn@@": 2993,
    "bildet": 2994,
    "ara": 2995,
    "ane": 2996,
    "Wild@@": 2997,
    "Vier@@": 2998,
    "Town@@": 2999,
    "Sonnen@@": 3000,
    "Play@@": 3001,
    "Bild": 3002,
    "Bewegung": 3003,
    "Baum@@": 3004,
    "yc@@": 3005,
    "veröffentlicht": 3006,
    "verließ": 3007,
    "sin@@": 3008,
    "reiche": 3009,
    "nördlich": 3010,
    "hoch": 3011,
    "formen": 3012,
    "falls": 3013,
    "dor@@": 3014,
    "ativ@@": 3015,
    "Dadurch": 3016,
    "stoff@@": 3017,
    "relativ": 3018,
    "modernen": 3019,
    "ire": 3020,
    "hinter@@": 3021,
    "haft": 3022,
    "einhei@@": 3023,
    "Ziel": 3024,
    "Städte": 3025,
    "Recht@@": 3026,
    "Preis": 3027,
    "Lak@@": 3028,
    "Ged@@": 3029,
    "Alter": 3030,
    "ütz@@": 3031,
    "serv@@": 3032,
    "pe": 3033,
    "lose": 3034,
    "keit": 3035,
    "beste": 3036,
    "Straßen": 3037,
    "Stra@@": 3038,
    "Gef@@": 3039,
    "Computer@@": 3040,
    "Anfang": 3041,
    "Abend": 3042,
    "späteren": 3043,
    "hohen": 3044,
    "Zugang": 3045,
    "Wo": 3046,
    "Schwe@@": 3047,
    "Probleme": 3048,
    "Feuer@@": 3049,
    "Fal@@": 3050,
    "Baseball@@": 3051,
    "Air@@": 3052,
    "wäh@@": 3053,
    "stri@@": 3054,
    "profession@@": 3055,
    "ologische": 3056,
    "nächste": 3057,
    "gol@@": 3058,
    "ek@@": 3059,
    "[@@": 3060,
    "Sin@@": 3061,
    "Sim@@": 3062,
    "Port@@": 3063,
    "John@@": 3064,
    "Gesellschaft": 3065,
    "vertre@@": 3066,
    "r.": 3067,
    "int@@": 3068,
    "Sy@@": 3069,
    "Einer": 3070,
    "rat": 3071,
    "außer@@": 3072,
    "Vat@@": 3073,
    "Spie@@": 3074,
    "Lig@@": 3075,
    "Jetzt": 3076,
    "ältere": 3077,
    "schaut": 3078,
    "pe@@": 3079,
    "kap@@": 3080,
    "iel": 3081,
    "Train@@": 3082,
    "Politik": 3083,
    "Kü@@": 3084,
    "Kurz": 3085,
    "Innen@@": 3086,
    "Die@@": 3087,
    "Bir@@": 3088,
    "Besch@@": 3089,
    "wie@@": 3090,
    "westlich": 3091,
    "test": 3092,
    "stieg": 3093,
    "ish": 3094,
    "fei@@": 3095,
    "dium": 3096,
    "ass": 3097,
    "age": 3098,
    "Hunde": 3099,
    "Hauptsitz": 3100,
    "Gesetz": 3101,
    "Ehren": 3102,
    "schnei@@": 3103,
    "ruh@@": 3104,
    "passi@@": 3105,
    "ild@@": 3106,
    "genie@@": 3107,
    "dient": 3108,
    "bru@@": 3109,
    "bewer@@": 3110,
    "bestimmte": 3111,
    "assen": 3112,
    "]": 3113,
    "Stock@@": 3114,
    "Stelle": 3115,
    "Sir": 3116,
    "Royal": 3117,
    "Pi@@": 3118,
    "Hall": 3119,
    "East": 3120,
    "östlichen": 3121,
    "jähr@@": 3122,
    "gründete": 3123,
    "gelben": 3124,
    "besie@@": 3125,
    "Vari@@": 3126,
    "Pfer@@": 3127,
    "Camp@@": 3128,
    "American": 3129,
    "zip@@": 3130,
    "kü@@": 3131,
    "ktor": 3132,
    "komplex@@": 3133,
    "feld": 3134,
    "ble@@": 3135,
    "bahn": 3136,
    "außer": 3137,
    "Standard@@": 3138,
    "Schiff": 3139,
    "Pun@@": 3140,
    "Jugend@@": 3141,
    "Jack@@": 3142,
    "Derzeit": 3143,
    "Australien": 3144,
    "zung": 3145,
    "zieht": 3146,
    "politische": 3147,
    "linie": 3148,
    "ick": 3149,
    "erschien": 3150,
    "eng@@": 3151,
    "endes": 3152,
    "Wirtschaft": 3153,
    "Verfü@@": 3154,
    "Strand": 3155,
    "Liber@@": 3156,
    "End@@": 3157,
    "Dazu": 3158,
    "äd@@": 3159,
    "teren": 3160,
    "stie@@": 3161,
    "pt@@": 3162,
    "för@@": 3163,
    "darüber": 3164,
    "ahl": 3165,
    "achsen@@": 3166,
    "Wit@@": 3167,
    "Sprachen": 3168,
    "Spr@@": 3169,
    "Morgen": 3170,
    "Henry": 3171,
    "Football": 3172,
    "zunehmen@@": 3173,
    "jungen": 3174,
    "icht": 3175,
    "erhöh@@": 3176,
    "dy@@": 3177,
    "annten": 3178,
    "anderem": 3179,
    "Schei@@": 3180,
    "J.": 3181,
    "Git@@": 3182,
    "Bürgermeister": 3183,
    "zentrum": 3184,
    "völlig": 3185,
    "train@@": 3186,
    "schien": 3187,
    "sagt": 3188,
    "own@@": 3189,
    "ollen": 3190,
    "lam@@": 3191,
    "ierende": 3192,
    "Volks@@": 3193,
    "Trin@@": 3194,
    "Mitte": 3195,
    "Entwick@@": 3196,
    "Comp@@": 3197,
    "äum@@": 3198,
    "ßt": 3199,
    "wehr@@": 3200,
    "schlug": 3201,
    "sage": 3202,
    "peri@@": 3203,
    "ket@@": 3204,
    "kel@@": 3205,
    "iellen": 3206,
    "Wort@@": 3207,
    "Wir@@": 3208,
    "Road": 3209,
    "Ren@@": 3210,
    "Mikro@@": 3211,
    "Mess@@": 3212,
    "Ehr@@": 3213,
    "Außen@@": 3214,
    "zt": 3215,
    "yr@@": 3216,
    "weisen": 3217,
    "gruppe": 3218,
    "dritte": 3219,
    "dau@@": 3220,
    "ca@@": 3221,
    "bür@@": 3222,
    "bild@@": 3223,
    "Sowohl": 3224,
    "Sommer": 3225,
    "Original@@": 3226,
    "Island": 3227,
    "Gegensatz": 3228,
    "Essen": 3229,
    "Deb@@": 3230,
    "Cur@@": 3231,
    "Autos": 3232,
    "zus@@": 3233,
    "zeigen": 3234,
    "na": 3235,
    "internationale": 3236,
    "ierungen": 3237,
    "ichten": 3238,
    "geklei@@": 3239,
    "füh@@": 3240,
    "Wür@@": 3241,
    "She@@": 3242,
    "Rec@@": 3243,
    "Polizei": 3244,
    "Körper": 3245,
    "Kompon@@": 3246,
    "Inform@@": 3247,
    "Fein@@": 3248,
    "Ern@@": 3249,
    "licherweise": 3250,
    "erg@@": 3251,
    "Trans@@": 3252,
    "Spei@@": 3253,
    "Schutz@@": 3254,
    "Kindern": 3255,
    "Kenn@@": 3256,
    "Hen@@": 3257,
    "Bla@@": 3258,
    "wohn@@": 3259,
    "way": 3260,
    "verbrachte": 3261,
    "un": 3262,
    "kla@@": 3263,
    "forder@@": 3264,
    "folge": 3265,
    "erweiter@@": 3266,
    "bs": 3267,
    "Ziel@@": 3268,
    "Regierungs@@": 3269,
    "Im@@": 3270,
    "wirtschaft@@": 3271,
    "warf": 3272,
    "verurs@@": 3273,
    "la": 3274,
    "droh@@": 3275,
    "Zahl@@": 3276,
    "Schie@@": 3277,
    "Pin@@": 3278,
    "Klei@@": 3279,
    "Hill": 3280,
    "Bab@@": 3281,
    "well": 3282,
    "ves": 3283,
    "treten": 3284,
    "stellten": 3285,
    "pass@@": 3286,
    "nannte": 3287,
    "ls": 3288,
    "les": 3289,
    "dire@@": 3290,
    "bten": 3291,
    "asiat@@": 3292,
    "ales": 3293,
    "Verwaltungs@@": 3294,
    "Reserv@@": 3295,
    "Herz@@": 3296,
    "General": 3297,
    "Ergebnis": 3298,
    "Erfol@@": 3299,
    "Cu@@": 3300,
    "Bedeut@@": 3301,
    "Bau": 3302,
    "Ander@@": 3303,
    "zeigte": 3304,
    "wand@@": 3305,
    "vorher@@": 3306,
    "tag": 3307,
    "sprech@@": 3308,
    "sicht": 3309,
    "ome": 3310,
    "iere": 3311,
    "engl@@": 3312,
    "bekannte": 3313,
    "Vielzahl": 3314,
    "Single": 3315,
    "Moment": 3316,
    "Gouverneur": 3317,
    "vari@@": 3318,
    "tionen": 3319,
    "schule": 3320,
    "schnit@@": 3321,
    "ppe": 3322,
    "oss@@": 3323,
    "mische": 3324,
    "glich": 3325,
    "beruf@@": 3326,
    "Whit@@": 3327,
    "Seiten": 3328,
    "Model@@": 3329,
    "Baby": 3330,
    "Ausbildung": 3331,
    "wohl": 3332,
    "tende": 3333,
    "stud@@": 3334,
    "olle": 3335,
    "meist": 3336,
    "gener@@": 3337,
    "gebaut": 3338,
    "deutlich": 3339,
    "con@@": 3340,
    "Wander@@": 3341,
    "Prozess": 3342,
    "Autor@@": 3343,
    "Austr@@": 3344,
    "teste": 3345,
    "ppen@@": 3346,
    "mals": 3347,
    "anderes": 3348,
    "Strei@@": 3349,
    "Landes@@": 3350,
    "Kannst": 3351,
    "Jan@@": 3352,
    "Cam@@": 3353,
    "zeichnete": 3354,
    "tatsächlich": 3355,
    "statt": 3356,
    "olo@@": 3357,
    "hinzufügen": 3358,
    "fiel": 3359,
    "deutschen": 3360,
    "bot": 3361,
    "bestä@@": 3362,
    "beobach@@": 3363,
    "Zw@@": 3364,
    "Winter@@": 3365,
    "Website": 3366,
    "Turn@@": 3367,
    "Ti@@": 3368,
    "Temp@@": 3369,
    "Ris@@": 3370,
    "Nation@@": 3371,
    "Heimat": 3372,
    "Heim@@": 3373,
    "Den": 3374,
    "Bedeutung": 3375,
    "Aktivitäten": 3376,
    "ikan@@": 3377,
    "fün@@": 3378,
    "dliche": 3379,
    "dest": 3380,
    "bert": 3381,
    "atur": 3382,
    "Tei@@": 3383,
    "Rat@@": 3384,
    "Neben": 3385,
    "Mein@@": 3386,
    "Klasse": 3387,
    "Back@@": 3388,
    "traf": 3389,
    "ja": 3390,
    "ish@@": 3391,
    "historische": 3392,
    "ffer@@": 3393,
    "Wahr@@": 3394,
    "Smith": 3395,
    "Sender": 3396,
    "Russ@@": 3397,
    "Journ@@": 3398,
    "Harr@@": 3399,
    "Europ@@": 3400,
    "verheiratet": 3401,
    "südlich": 3402,
    "sser": 3403,
    "sitz": 3404,
    "scha@@": 3405,
    "ic": 3406,
    "gro@@": 3407,
    "etten": 3408,
    "bestimmten": 3409,
    "band": 3410,
    "Schauspieler": 3411,
    "Betrieb@@": 3412,
    "wick@@": 3413,
    "wichtigste": 3414,
    "tieren": 3415,
    "teile": 3416,
    "sicher": 3417,
    "sau@@": 3418,
    "nete": 3419,
    "kaum": 3420,
    "essen": 3421,
    "elles": 3422,
    "digung": 3423,
    "damals": 3424,
    "blau@@": 3425,
    "bilden": 3426,
    "Temper@@": 3427,
    "Rock": 3428,
    "Manchmal": 3429,
    "wachsen@@": 3430,
    "stellungen": 3431,
    "spar@@": 3432,
    "eins": 3433,
    "ders": 3434,
    "com@@": 3435,
    "chs": 3436,
    "cal": 3437,
    "asste": 3438,
    "Zeitung": 3439,
    "Yo@@": 3440,
    "Teams": 3441,
    "Sw@@": 3442,
    "Kriegs@@": 3443,
    "Gericht": 3444,
    "Dienst": 3445,
    "Bil@@": 3446,
    "Archite@@": 3447,
    "tik": 3448,
    "sign@@": 3449,
    "ohl@@": 3450,
    "lieber": 3451,
    "ktur@@": 3452,
    "gh": 3453,
    "gemacht": 3454,
    "gar": 3455,
    "din@@": 3456,
    "Well@@": 3457,
    "Siehe": 3458,
    "Programm@@": 3459,
    "Kamer@@": 3460,
    "Blut@@": 3461,
    "ließen": 3462,
    "liert": 3463,
    "leu@@": 3464,
    "lebten": 3465,
    "englischen": 3466,
    "asi@@": 3467,
    "Wald@@": 3468,
    "Trau@@": 3469,
    "Test@@": 3470,
    "Tab@@": 3471,
    "TO": 3472,
    "Pul@@": 3473,
    "Pan@@": 3474,
    "Kil@@": 3475,
    "Instru@@": 3476,
    "Fahrrad": 3477,
    "Boo@@": 3478,
    "weiteres": 3479,
    "tigung": 3480,
    "struktur@@": 3481,
    "pun@@": 3482,
    "pers@@": 3483,
    "ity": 3484,
    "ise": 3485,
    "ischem": 3486,
    "freund@@": 3487,
    "fanden": 3488,
    "dischen": 3489,
    "derzeitige": 3490,
    "Strecke": 3491,
    "Pop@@": 3492,
    "Menge": 3493,
    "Gerichts@@": 3494,
    "Frage": 3495,
    "Bis": 3496,
    "Beginn": 3497,
    "ül@@": 3498,
    "ws": 3499,
    "weist": 3500,
    "warum": 3501,
    "wann": 3502,
    "schätz@@": 3503,
    "omat@@": 3504,
    "kurze": 3505,
    "hell@@": 3506,
    "großar@@": 3507,
    "grenzt": 3508,
    "diger": 3509,
    "Vogel@@": 3510,
    "Umgebung": 3511,
    "Tom@@": 3512,
    "Studi@@": 3513,
    "Rahmen": 3514,
    "Mary": 3515,
    "Kurz@@": 3516,
    "Kanada": 3517,
    "Imp@@": 3518,
    "Hut": 3519,
    "Gemeinden": 3520,
    "Erde": 3521,
    "verläuft": 3522,
    "omen": 3523,
    "lässi@@": 3524,
    "ili@@": 3525,
    "ebenso": 3526,
    "Tat@@": 3527,
    "Organis@@": 3528,
    "Komm@@": 3529,
    "Hot@@": 3530,
    "Frankreich": 3531,
    "Einsatz": 3532,
    "Bezirks@@": 3533,
    "örtlichen": 3534,
    "zes": 3535,
    "wün@@": 3536,
    "vers@@": 3537,
    "val@@": 3538,
    "oli@@": 3539,
    "nutz@@": 3540,
    "niemals": 3541,
    "kn@@": 3542,
    "fla@@": 3543,
    "ehemalige": 3544,
    "dig": 3545,
    "Wen@@": 3546,
    "Tun@@": 3547,
    "Mög@@": 3548,
    "Liebe": 3549,
    "Füge": 3550,
    "Fort": 3551,
    "But@@": 3552,
    "wich@@": 3553,
    "pri@@": 3554,
    "ograf@@": 3555,
    "legen": 3556,
    "gesell@@": 3557,
    "erscheint": 3558,
    "enthalten": 3559,
    "einf@@": 3560,
    "bildung": 3561,
    "auff@@": 3562,
    "abgel@@": 3563,
    "Som@@": 3564,
    "Out@@": 3565,
    "Kind@@": 3566,
    "Holl@@": 3567,
    "Halb@@": 3568,
    "Feu@@": 3569,
    "Europa": 3570,
    "Öffentlichkeit": 3571,
    "va": 3572,
    "uten": 3573,
    "stag": 3574,
    "lern": 3575,
    "imp@@": 3576,
    "heu@@": 3577,
    "größere": 3578,
    "bevorzu@@": 3579,
    "anschließend": 3580,
    "Wood@@": 3581,
    "REMOV@@": 3582,
    "Nav@@": 3583,
    "Hast": 3584,
    "Fen@@": 3585,
    "Fehler": 3586,
    "Dienst@@": 3587,
    "übernahm": 3588,
    "ät": 3589,
    "tions@@": 3590,
    "schwe@@": 3591,
    "rad@@": 3592,
    "häuf@@": 3593,
    "heutigen": 3594,
    "heits@@": 3595,
    "au": 3596,
    "Will@@": 3597,
    "Sä@@": 3598,
    "Prof@@": 3599,
    "Mün@@": 3600,
    "Körper@@": 3601,
    "Green@@": 3602,
    "Frü@@": 3603,
    "Blick": 3604,
    "Anf@@": 3605,
    "Ach@@": 3606,
    "Aben@@": 3607,
    "Ähn@@": 3608,
    "vertei@@": 3609,
    "setzung": 3610,
    "reich": 3611,
    "ppen": 3612,
    "orn@@": 3613,
    "ice": 3614,
    "aufen": 3615,
    "ards": 3616,
    "Tau@@": 3617,
    "Schnee@@": 3618,
    "Schi@@": 3619,
    "Richter": 3620,
    "Lauf@@": 3621,
    "Lat@@": 3622,
    "Haup@@": 3623,
    "Harry": 3624,
    "Beziehung": 3625,
    ",@@": 3626,
    "teilweise": 3627,
    "stütz@@": 3628,
    "schte": 3629,
    "gerung": 3630,
    "digte": 3631,
    "Span@@": 3632,
    "Musi@@": 3633,
    "Län@@": 3634,
    "Kultur@@": 3635,
    "Industrie@@": 3636,
    "Geschä@@": 3637,
    "Gefüh@@": 3638,
    "Gam@@": 3639,
    "Fran@@": 3640,
    "Bis@@": 3641,
    "Auto@@": 3642,
    "welt@@": 3643,
    "ungspro@@": 3644,
    "südlichen": 3645,
    "ox@@": 3646,
    "hof": 3647,
    "hn@@": 3648,
    "gefü@@": 3649,
    "ents@@": 3650,
    "einst": 3651,
    "dit@@": 3652,
    "Techn@@": 3653,
    "Sig@@": 3654,
    "Polizei@@": 3655,
    "Können": 3656,
    "Kraft@@": 3657,
    "Kno@@": 3658,
    "Ihren": 3659,
    "Englisch": 3660,
    "Dro@@": 3661,
    "weiterer": 3662,
    "selten": 3663,
    "schwarze": 3664,
    "maß@@": 3665,
    "lief": 3666,
    "fs": 3667,
    "flie@@": 3668,
    "dah@@": 3669,
    "brü@@": 3670,
    "Welche": 3671,
    "Söh@@": 3672,
    "Mö@@": 3673,
    "Metro@@": 3674,
    "Ki@@": 3675,
    "Ap@@": 3676,
    "zufrieden@@": 3677,
    "wichtig@@": 3678,
    "stro@@": 3679,
    "schutz@@": 3680,
    "ro": 3681,
    "nehm@@": 3682,
    "mme": 3683,
    "lok@@": 3684,
    "laden": 3685,
    "ets": 3686,
    "ding@@": 3687,
    "Kra@@": 3688,
    "Campus": 3689,
    "älteste": 3690,
    "weiße": 3691,
    "under@@": 3692,
    "regelmäß@@": 3693,
    "port@@": 3694,
    "pflan@@": 3695,
    "nationalen": 3696,
    "kurz@@": 3697,
    "kontrol@@": 3698,
    "ierungs@@": 3699,
    "ide@@": 3700,
    "gleiche": 3701,
    "fel": 3702,
    "einz@@": 3703,
    "dition@@": 3704,
    "bekannten": 3705,
    "anne": 3706,
    "ahr@@": 3707,
    "Stunden": 3708,
    "Ly@@": 3709,
    "Clar@@": 3710,
    "ähnlich": 3711,
    "zuerst": 3712,
    "verwendete": 3713,
    "verloren": 3714,
    "klet@@": 3715,
    "hiel@@": 3716,
    "guten": 3717,
    "fünf@@": 3718,
    "dre@@": 3719,
    "beschäf@@": 3720,
    "anden": 3721,
    "Ursprünglich": 3722,
    "Sommer@@": 3723,
    "Sing@@": 3724,
    "Sammlung": 3725,
    "Obje@@": 3726,
    "Nacht@@": 3727,
    "Mich@@": 3728,
    "Landwirtschaft": 3729,
    "Konf@@": 3730,
    "Gitarr@@": 3731,
    "Fach@@": 3732,
    "Din@@": 3733,
    "Creek": 3734,
    "uss": 3735,
    "tin@@": 3736,
    "sprache": 3737,
    "ory": 3738,
    "näh@@": 3739,
    "mess@@": 3740,
    "mes": 3741,
    "ließ@@": 3742,
    "lauf": 3743,
    "flug@@": 3744,
    "eig@@": 3745,
    "dra@@": 3746,
    "bringt": 3747,
    "Text": 3748,
    "Sozial@@": 3749,
    "Sache": 3750,
    "Richt@@": 3751,
    "Methode": 3752,
    "Jur@@": 3753,
    "Eigen@@": 3754,
    "Eben@@": 3755,
    "Cli@@": 3756,
    "Bundes@@": 3757,
    "wesent@@": 3758,
    "tiges": 3759,
    "tert": 3760,
    "res@@": 3761,
    "hielten": 3762,
    "eter": 3763,
    "erle@@": 3764,
    "bieten": 3765,
    "begrenz@@": 3766,
    "basiert": 3767,
    "aup@@": 3768,
    "akzep@@": 3769,
    "akti@@": 3770,
    "ah": 3771,
    "Schlaf@@": 3772,
    "Nat@@": 3773,
    "Martin": 3774,
    "Kunst": 3775,
    "Jam@@": 3776,
    "I": 3777,
    "Got@@": 3778,
    "Farben": 3779,
    "Design@@": 3780,
    "Carol@@": 3781,
    "Bay@@": 3782,
    "weltweit": 3783,
    "volution@@": 3784,
    "ungefähr": 3785,
    "stände": 3786,
    "stehenden": 3787,
    "popul@@": 3788,
    "pfer@@": 3789,
    "ong": 3790,
    "nördlichen": 3791,
    "losen": 3792,
    "lehnte": 3793,
    "internationalen": 3794,
    "ichts@@": 3795,
    "gehei@@": 3796,
    "die@@": 3797,
    "berg": 3798,
    "Uhr": 3799,
    "Poly@@": 3800,
    "Mannschaft": 3801,
    "Japan": 3802,
    "Hum@@": 3803,
    "...": 3804,
    "är": 3805,
    "uni@@": 3806,
    "sil@@": 3807,
    "pha@@": 3808,
    "mmer@@": 3809,
    "kompon@@": 3810,
    "inger": 3811,
    "id": 3812,
    "go@@": 3813,
    "flo@@": 3814,
    "enzen": 3815,
    "eben@@": 3816,
    "dachte": 3817,
    "bal@@": 3818,
    "aku@@": 3819,
    "Versionen": 3820,
    "Off@@": 3821,
    "Kr@@": 3822,
    "Invest@@": 3823,
    "Fenster": 3824,
    "Ep@@": 3825,
    "Champ@@": 3826,
    "Beispiele": 3827,
    "ätz@@": 3828,
    "wert": 3829,
    "verur@@": 3830,
    "verbr@@": 3831,
    "tief@@": 3832,
    "ost@@": 3833,
    "linge": 3834,
    "klin@@": 3835,
    "ite@@": 3836,
    "hängt": 3837,
    "englische": 3838,
    "digen": 3839,
    "denken": 3840,
    "bene": 3841,
    "Wann": 3842,
    "Veranstaltung": 3843,
    "Näh@@": 3844,
    "Miss@@": 3845,
    "Gott": 3846,
    "Gener@@": 3847,
    "Blu@@": 3848,
    "Atlan@@": 3849,
    "Angriff": 3850,
    "üblicherweise": 3851,
    "werke": 3852,
    "sü@@": 3853,
    "stück": 3854,
    "mitglieder": 3855,
    "klassi@@": 3856,
    "gan": 3857,
    "einschließlich": 3858,
    "edi@@": 3859,
    "dienst": 3860,
    "dien": 3861,
    "Valley": 3862,
    "Ty@@": 3863,
    "Top@@": 3864,
    "Kam@@": 3865,
    "Jedes": 3866,
    "Gil@@": 3867,
    "Dennoch": 3868,
    "Bill": 3869,
    "verschw@@": 3870,
    "veranstal@@": 3871,
    "ust": 3872,
    "unn@@": 3873,
    "trin@@": 3874,
    "tem": 3875,
    "jemals": 3876,
    "heirat@@": 3877,
    "griff": 3878,
    "Stattdessen": 3879,
    "Soft@@": 3880,
    "Schwer@@": 3881,
    "Mei@@": 3882,
    "Lö@@": 3883,
    "International": 3884,
    "Heimat@@": 3885,
    "Hause": 3886,
    "Größe": 3887,
    "Glas@@": 3888,
    "Fuß": 3889,
    "Berei@@": 3890,
    "Beim": 3891,
    "zufolge": 3892,
    "zel@@": 3893,
    "ysi@@": 3894,
    "wichtiger": 3895,
    "wasser@@": 3896,
    "volle": 3897,
    "th": 3898,
    "städ@@": 3899,
    "schrift@@": 3900,
    "regi@@": 3901,
    "großes": 3902,
    "benden": 3903,
    "Sel@@": 3904,
    "Professor": 3905,
    "My@@": 3906,
    "Lang@@": 3907,
    "Hut@@": 3908,
    "Black@@": 3909,
    "urm@@": 3910,
    "umfass@@": 3911,
    "rosa": 3912,
    "ogra@@": 3913,
    "liebe": 3914,
    "langsam": 3915,
    "hren": 3916,
    "erfolgreich": 3917,
    "do": 3918,
    "deine": 3919,
    "Ze@@": 3920,
    "Wettbewer@@": 3921,
    "Township": 3922,
    "Themen": 3923,
    "Pot@@": 3924,
    "Ox@@": 3925,
    "Ont@@": 3926,
    "Oli@@": 3927,
    "Mark": 3928,
    "Interesse": 3929,
    "Doppel@@": 3930,
    "Daten@@": 3931,
    "weitgehend": 3932,
    "vert@@": 3933,
    "nahe@@": 3934,
    "lebens@@": 3935,
    "kannst": 3936,
    "gens": 3937,
    "ermög@@": 3938,
    "erfahr@@": 3939,
    "derung": 3940,
    "britische": 3941,
    "bewahr@@": 3942,
    "allein": 3943,
    "Tru@@": 3944,
    "Roman@@": 3945,
    "Meeres@@": 3946,
    "Indian@@": 3947,
    "Feuer": 3948,
    "Dur@@": 3949,
    "Cle@@": 3950,
    "weißer": 3951,
    "stür@@": 3952,
    "schm@@": 3953,
    "rück@@": 3954,
    "leitete": 3955,
    "ktive": 3956,
    "ehr": 3957,
    "alle@@": 3958,
    "Winter": 3959,
    "Vo@@": 3960,
    "Vertrag": 3961,
    "Pau@@": 3962,
    "Moder@@": 3963,
    "Inseln": 3964,
    "Ergebnisse": 3965,
    "Dies@@": 3966,
    "Deutschland": 3967,
    "Cla@@": 3968,
    "Basketball@@": 3969,
    "zeitig": 3970,
    "verkehr@@": 3971,
    "schar@@": 3972,
    "name": 3973,
    "echn@@": 3974,
    "bezir@@": 3975,
    "bereich": 3976,
    "ausschließlich": 3977,
    "Willi@@": 3978,
    "Viel@@": 3979,
    "Verk@@": 3980,
    "Operation": 3981,
    "Kontrolle": 3982,
    "Ihrer": 3983,
    "Höh@@": 3984,
    "Geschäft": 3985,
    "Bom@@": 3986,
    "Asi@@": 3987,
    "zudem": 3988,
    "vol@@": 3989,
    "urn@@": 3990,
    "spir@@": 3991,
    "ingen": 3992,
    "han@@": 3993,
    "fern": 3994,
    "ativ": 3995,
    "Konzer@@": 3996,
    "Jon@@": 3997,
    "Amtszeit": 3998,
    "zusätzliche": 3999,
    "vin@@": 4000,
    "ue": 4001,
    "saß": 4002,
    "isierung": 4003,
    "gere": 4004,
    "gefunden": 4005,
    "gangs@@": 4006,
    "einzigar@@": 4007,
    "don": 4008,
    "berg@@": 4009,
    "asst": 4010,
    "Zeiten": 4011,
    "Untersuchung": 4012,
    "Theorie": 4013,
    "Studenten@@": 4014,
    "Monat": 4015,
    "Metho@@": 4016,
    "Mechan@@": 4017,
    "Mark@@": 4018,
    "Jahres": 4019,
    "Inn@@": 4020,
    "Episode": 4021,
    "Anim@@": 4022,
    "zugän@@": 4023,
    "zte": 4024,
    "stern": 4025,
    "sex@@": 4026,
    "schrit@@": 4027,
    "satz": 4028,
    "rang@@": 4029,
    "präsen@@": 4030,
    "mik@@": 4031,
    "läu@@": 4032,
    "jem@@": 4033,
    "historischen": 4034,
    "französischen": 4035,
    "fallen": 4036,
    "fahrer": 4037,
    "bruch": 4038,
    "bleiben": 4039,
    "betreibt": 4040,
    "Wirtschafts@@": 4041,
    "Schwei@@": 4042,
    "Ol@@": 4043,
    "Nich@@": 4044,
    "Mont@@": 4045,
    "Lebens": 4046,
    "Grundlage": 4047,
    "Feld": 4048,
    "Charak@@": 4049,
    "Bron@@": 4050,
    "Ü@@": 4051,
    "wusste": 4052,
    "wissenschaft@@": 4053,
    "weit@@": 4054,
    "unterschiedlichen": 4055,
    "syn@@": 4056,
    "own": 4057,
    "mite@@": 4058,
    "gressi@@": 4059,
    "erlau@@": 4060,
    "bury": 4061,
    "brach": 4062,
    "blieben": 4063,
    "acher": 4064,
    "Zug": 4065,
    "Sus@@": 4066,
    "Sher@@": 4067,
    "Pak@@": 4068,
    "Lad@@": 4069,
    "Italien@@": 4070,
    "Fu@@": 4071,
    "Flugzeug": 4072,
    "Films": 4073,
    "Cas@@": 4074,
    "Brow@@": 4075,
    "Berg": 4076,
    "wit@@": 4077,
    "uelle": 4078,
    "stimmung": 4079,
    "ni@@": 4080,
    "neten": 4081,
    "legt": 4082,
    "halt@@": 4083,
    "cu@@": 4084,
    "Zahl": 4085,
    "Wur@@": 4086,
    "Wird": 4087,
    "Sieg": 4088,
    "Py@@": 4089,
    "Nachrichten@@": 4090,
    "Meister@@": 4091,
    "Klassi@@": 4092,
    "Feh@@": 4093,
    "Ebene": 4094,
    "Bezug": 4095,
    "weis@@": 4096,
    "unternehmen": 4097,
    "oss": 4098,
    "müh@@": 4099,
    "lad@@": 4100,
    "krä@@": 4101,
    "jemand": 4102,
    "hundert": 4103,
    "früh": 4104,
    "asen": 4105,
    "Zug@@": 4106,
    "Schiffe": 4107,
    "Gitarre": 4108,
    "Boot@@": 4109,
    "Beweg@@": 4110,
    "Bahnho@@": 4111,
    "Arme@@": 4112,
    "straße": 4113,
    "sal@@": 4114,
    "ologischen": 4115,
    "iges": 4116,
    "ierenden": 4117,
    "haltung": 4118,
    "gelegentlich": 4119,
    "etten@@": 4120,
    "erf@@": 4121,
    "enthielt": 4122,
    "Seitdem": 4123,
    "Schreib@@": 4124,
    "Rand@@": 4125,
    "Plan": 4126,
    "Ot@@": 4127,
    "Mex@@": 4128,
    "Hände": 4129,
    "Hir@@": 4130,
    "Gründung": 4131,
    "Fahrrad@@": 4132,
    "Einwohner": 4133,
    "Edward": 4134,
    "Chr@@": 4135,
    "Büh@@": 4136,
    "Antwort": 4137,
    "zahlreichen": 4138,
    "ystem": 4139,
    "verhin@@": 4140,
    "verbin@@": 4141,
    "uell": 4142,
    "suchen": 4143,
    "oc@@": 4144,
    "neues": 4145,
    "natürlich": 4146,
    "lungs@@": 4147,
    "könnten": 4148,
    "hu@@": 4149,
    "histor@@": 4150,
    "handelte": 4151,
    "go": 4152,
    "for": 4153,
    "ermöglicht": 4154,
    "Telefon@@": 4155,
    "Philip": 4156,
    "Mount": 4157,
    "Kli@@": 4158,
    "Hem@@": 4159,
    "Glau@@": 4160,
    "Französ@@": 4161,
    "Forschungs@@": 4162,
    "Fak@@": 4163,
    "District": 4164,
    "Black": 4165,
    "Anschließend": 4166,
    "äuf@@": 4167,
    "zeichnet": 4168,
    "traditionellen": 4169,
    "schreck@@": 4170,
    "mittel": 4171,
    "krank@@": 4172,
    "kommerziel@@": 4173,
    "junges": 4174,
    "hü@@": 4175,
    "gewöhn@@": 4176,
    "geplan@@": 4177,
    "ents": 4178,
    "dis@@": 4179,
    "digit@@": 4180,
    "cc@@": 4181,
    "ann": 4182,
    "Tie@@": 4183,
    "Tele@@": 4184,
    "Tar@@": 4185,
    "Tagen": 4186,
    "Licht": 4187,
    "Kop@@": 4188,
    "Kino": 4189,
    "Joseph": 4190,
    "Jacke": 4191,
    "House": 4192,
    "Hotel": 4193,
    "Hintergrund": 4194,
    "Gele@@": 4195,
    "Geheim@@": 4196,
    "Flo@@": 4197,
    "Einhei@@": 4198,
    "Bühne": 4199,
    "Bibliothek": 4200,
    "Bass@@": 4201,
    "äts@@": 4202,
    "zö@@": 4203,
    "vorzu@@": 4204,
    "vin": 4205,
    "tic@@": 4206,
    "positive": 4207,
    "polit@@": 4208,
    "moderne": 4209,
    "let@@": 4210,
    "kommun@@": 4211,
    "führer": 4212,
    "fällt": 4213,
    "fun@@": 4214,
    "frie@@": 4215,
    "fließ@@": 4216,
    "christ@@": 4217,
    "Ul@@": 4218,
    "Reaktion": 4219,
    "Radio": 4220,
    "Häuser": 4221,
    "Blü@@": 4222,
    "überqu@@": 4223,
    "öse": 4224,
    "zah@@": 4225,
    "ymp@@": 4226,
    "tische": 4227,
    "produziert": 4228,
    "gebracht": 4229,
    "fälle": 4230,
    "bezieht": 4231,
    "ats": 4232,
    "Verein@@": 4233,
    "Stell@@": 4234,
    "Schwimm@@": 4235,
    "Kla@@": 4236,
    "Familien": 4237,
    "Erwachsen@@": 4238,
    "Bald": 4239,
    "Bade@@": 4240,
    "net": 4241,
    "mäßig": 4242,
    "männ@@": 4243,
    "kultur@@": 4244,
    "guter": 4245,
    "gehö@@": 4246,
    "domin@@": 4247,
    "angef@@": 4248,
    "Reise": 4249,
    "Recht": 4250,
    "Q@@": 4251,
    "Ländern": 4252,
    "Leu@@": 4253,
    "Jones": 4254,
    "Gelände": 4255,
    "Boot": 4256,
    "Befeh@@": 4257,
    "Also": 4258,
    "Abschnitt": 4259,
    "wü@@": 4260,
    "verste@@": 4261,
    "tigt": 4262,
    "rund": 4263,
    "mindestens": 4264,
    "iesen": 4265,
    "gal@@": 4266,
    "erie": 4267,
    "di": 4268,
    "Video": 4269,
    "Rat": 4270,
    "Lass": 4271,
    "Glück@@": 4272,
    "Foot@@": 4273,
    "Farbe": 4274,
    "werte": 4275,
    "verantwort@@": 4276,
    "uli@@": 4277,
    "tanz@@": 4278,
    "stammen": 4279,
    "schütz@@": 4280,
    "kreis@@": 4281,
    "jeweils": 4282,
    "ernst@@": 4283,
    "elten": 4284,
    "dige": 4285,
    "besitzt": 4286,
    "aner": 4287,
    "akadem@@": 4288,
    "Tom": 4289,
    "Sicherheits@@": 4290,
    "Mitarbeiter": 4291,
    "Konfli@@": 4292,
    "Histor@@": 4293,
    "Gol@@": 4294,
    "Gat@@": 4295,
    "Fir@@": 4296,
    "Entscheidung": 4297,
    "Entschei@@": 4298,
    "Damit": 4299,
    "Bay": 4300,
    "Arbei@@": 4301,
    "überra@@": 4302,
    "überhaupt": 4303,
    "Är@@": 4304,
    "use": 4305,
    "unterstützt": 4306,
    "tlichen": 4307,
    "pat@@": 4308,
    "mäch@@": 4309,
    "mag": 4310,
    "licht": 4311,
    "langs@@": 4312,
    "kel": 4313,
    "integr@@": 4314,
    "glück@@": 4315,
    "genommen": 4316,
    "gelten": 4317,
    "effe@@": 4318,
    "drin@@": 4319,
    "Ursprung": 4320,
    "Truppen": 4321,
    "Tennis@@": 4322,
    "Tanz@@": 4323,
    "Mike": 4324,
    "Markt": 4325,
    "Gebiete": 4326,
    "Design": 4327,
    "Brau@@": 4328,
    "Box@@": 4329,
    "Alben": 4330,
    "zeuge": 4331,
    "yer": 4332,
    "wiederhol@@": 4333,
    "vermei@@": 4334,
    "träge": 4335,
    "starken": 4336,
    "stam@@": 4337,
    "sons": 4338,
    "richtung": 4339,
    "rechts@@": 4340,
    "posi@@": 4341,
    "neun@@": 4342,
    "model@@": 4343,
    "hohe": 4344,
    "frei": 4345,
    "folgende": 4346,
    "dur@@": 4347,
    "brauche": 4348,
    "arbeit": 4349,
    "White": 4350,
    "Virgin@@": 4351,
    "Struktur": 4352,
    "Macht": 4353,
    "Lage": 4354,
    "Jos@@": 4355,
    "Jahres@@": 4356,
    "Hard@@": 4357,
    "Freunde": 4358,
    "Fragen": 4359,
    "Drit@@": 4360,
    "Bob": 4361,
    "Amt": 4362,
    "Alkoh@@": 4363,
    "zwar": 4364,
    "plan": 4365,
    "ots": 4366,
    "landwirtschaft@@": 4367,
    "japanischen": 4368,
    "hafte": 4369,
    "fi@@": 4370,
    "eien": 4371,
    "dge": 4372,
    "ange": 4373,
    "aktiv": 4374,
    "Söhne": 4375,
    "Steu@@": 4376,
    "Rau@@": 4377,
    "North@@": 4378,
    "Mill@@": 4379,
    "Meinung": 4380,
    "Kann": 4381,
    "Ingenie@@": 4382,
    "Geschichten": 4383,
    "Clo@@": 4384,
    "Central": 4385,
    "ämpf@@": 4386,
    "verstär@@": 4387,
    "tte": 4388,
    "separ@@": 4389,
    "konstru@@": 4390,
    "entscheiden@@": 4391,
    "eigenes": 4392,
    "auen": 4393,
    "angen": 4394,
    "Quellen": 4395,
    "Os@@": 4396,
    "King@@": 4397,
    "Jack": 4398,
    "Frank": 4399,
    "Doktor": 4400,
    "Dien@@": 4401,
    "Aufnahme": 4402,
    "änderte": 4403,
    "stär@@": 4404,
    "ständig": 4405,
    "reise": 4406,
    "oll": 4407,
    "mün@@": 4408,
    "mut@@": 4409,
    "ki@@": 4410,
    "ju@@": 4411,
    "Zeitschrift": 4412,
    "Wettbewerb": 4413,
    "Seiten@@": 4414,
    "Schritt": 4415,
    "Licht@@": 4416,
    "Gemeinschaft": 4417,
    "Einheit": 4418,
    "Brand@@": 4419,
    "willi@@": 4420,
    "schlä@@": 4421,
    "omet@@": 4422,
    "offizielle": 4423,
    "miteinander": 4424,
    "lex@@": 4425,
    "ierter": 4426,
    "höher@@": 4427,
    "herausge@@": 4428,
    "glaube": 4429,
    "getrenn@@": 4430,
    "fizierung": 4431,
    "endete": 4432,
    "dauer@@": 4433,
    "atoren": 4434,
    "Tan@@": 4435,
    "Rin@@": 4436,
    "Punk@@": 4437,
    "Produkte": 4438,
    "Mehr@@": 4439,
    "Länder": 4440,
    "Konzept": 4441,
    "Idee": 4442,
    "Glei@@": 4443,
    "Fle@@": 4444,
    "Et@@": 4445,
    "Dire@@": 4446,
    "Cemetery": 4447,
    "Beziehungen": 4448,
    "Autob@@": 4449,
    "Ade@@": 4450,
    "2@@": 4451,
    "öder@@": 4452,
    "zug@@": 4453,
    "ysteme": 4454,
    "yn": 4455,
    "vel@@": 4456,
    "kümm@@": 4457,
    "inspir@@": 4458,
    "genug": 4459,
    "ffe": 4460,
    "dens@@": 4461,
    "blon@@": 4462,
    "bestehen": 4463,
    "ald": 4464,
    "Todes@@": 4465,
    "Mak@@": 4466,
    "Lon@@": 4467,
    "Literatur@@": 4468,
    "League": 4469,
    "Formen": 4470,
    "öh@@": 4471,
    "änger": 4472,
    "waff@@": 4473,
    "verkauft": 4474,
    "schwarzer": 4475,
    "niemand": 4476,
    "meister": 4477,
    "lig": 4478,
    "höchste": 4479,
    "gewesen": 4480,
    "gabe": 4481,
    "eres": 4482,
    "darf": 4483,
    "braunen": 4484,
    "basier@@": 4485,
    "ball": 4486,
    "angs@@": 4487,
    "amb@@": 4488,
    "Zustand": 4489,
    "Washington": 4490,
    "Prozess@@": 4491,
    "Material": 4492,
    "Liga": 4493,
    "Flusses": 4494,
    "Ehe@@": 4495,
    "Comi@@": 4496,
    "Bewohner": 4497,
    "weite": 4498,
    "tex@@": 4499,
    "tenden": 4500,
    "starke": 4501,
    "spezi@@": 4502,
    "sichtlich": 4503,
    "ror@@": 4504,
    "part@@": 4505,
    "nation@@": 4506,
    "leitet": 4507,
    "künst@@": 4508,
    "kurzen": 4509,
    "größeren": 4510,
    "erstes": 4511,
    "Wi@@": 4512,
    "Theater": 4513,
    "Tel@@": 4514,
    "Stan@@": 4515,
    "Präsident@@": 4516,
    "Metall@@": 4517,
    "Hälfte": 4518,
    "Herz": 4519,
    "Fans": 4520,
    "Empf@@": 4521,
    "Down@@": 4522,
    "Center": 4523,
    "Brown": 4524,
    "Bran@@": 4525,
    "Albums": 4526,
    "0@@": 4527,
    "”": 4528,
    "spei@@": 4529,
    "schulen": 4530,
    "schreibt": 4531,
    "neuer": 4532,
    "lichkeiten": 4533,
    "frage": 4534,
    "fehl@@": 4535,
    "fach@@": 4536,
    "drit@@": 4537,
    "drehte": 4538,
    "beschreibt": 4539,
    "begannen": 4540,
    "aller@@": 4541,
    "Verhalten": 4542,
    "Veranstaltungen": 4543,
    "Eu@@": 4544,
    "Dau@@": 4545,
    "Behandlung": 4546,
    "All": 4547,
    "unterstützte": 4548,
    "unt": 4549,
    "traten": 4550,
    "sili@@": 4551,
    "fest": 4552,
    "betre@@": 4553,
    "aktuellen": 4554,
    "ahnen": 4555,
    "Sendung": 4556,
    "Net@@": 4557,
    "Hör@@": 4558,
    "Hi@@": 4559,
    "Ham@@": 4560,
    "Fla@@": 4561,
    "Ersten": 4562,
    "Chicago": 4563,
    "zusätz@@": 4564,
    "we": 4565,
    "stin@@": 4566,
    "spielten": 4567,
    "redu@@": 4568,
    "pu@@": 4569,
    "nu@@": 4570,
    "isst": 4571,
    "hät@@": 4572,
    "förmi@@": 4573,
    "ete": 4574,
    "erziel@@": 4575,
    "ennt": 4576,
    "drück@@": 4577,
    "Zäh@@": 4578,
    "Worte": 4579,
    "Voll@@": 4580,
    "Vict@@": 4581,
    "Unternehmens": 4582,
    "Stunde": 4583,
    "Statist@@": 4584,
    "Song@@": 4585,
    "Skla@@": 4586,
    "Rö@@": 4587,
    "Parlam@@": 4588,
    "Lyn@@": 4589,
    "Lord": 4590,
    "Kreisstadt": 4591,
    "Kosten": 4592,
    "Johnson": 4593,
    "Infolgedessen": 4594,
    "Fit@@": 4595,
    "Elemente": 4596,
    "Beruf@@": 4597,
    "ürz@@": 4598,
    "wichtigen": 4599,
    "uf@@": 4600,
    "quali@@": 4601,
    "pr@@": 4602,
    "hä@@": 4603,
    "freie": 4604,
    "etz": 4605,
    "cast@@": 4606,
    "achtz@@": 4607,
    "Vir@@": 4608,
    "Teilen": 4609,
    "Spiels": 4610,
    "Shi@@": 4611,
    "Runde": 4612,
    "Lar@@": 4613,
    "Internet": 4614,
    "Des@@": 4615,
    "Bundesstaat": 4616,
    "Aufnahmen": 4617,
    "zählen": 4618,
    "wohl@@": 4619,
    "verz@@": 4620,
    "ständi@@": 4621,
    "spür@@": 4622,
    "sat@@": 4623,
    "och": 4624,
    "nomin@@": 4625,
    "nationale": 4626,
    "läch@@": 4627,
    "liegenden": 4628,
    "interessi@@": 4629,
    "iken": 4630,
    "gert": 4631,
    "derte": 4632,
    "dert": 4633,
    "chron@@": 4634,
    "beschrän@@": 4635,
    "barkeit": 4636,
    "ars": 4637,
    "Phil@@": 4638,
    "Mass@@": 4639,
    "Markt@@": 4640,
    "Leiter": 4641,
    "Leistung": 4642,
    "Fußball": 4643,
    "Brief": 4644,
    "Ash@@": 4645,
    "wollen": 4646,
    "ute": 4647,
    "sper@@": 4648,
    "linien": 4649,
    "isse": 4650,
    "gesellschaft": 4651,
    "ftige": 4652,
    "entschied": 4653,
    "dru@@": 4654,
    "befest@@": 4655,
    "arischen": 4656,
    "ai": 4657,
    "Wein@@": 4658,
    "Vergangenheit": 4659,
    "Tax@@": 4660,
    "Publik@@": 4661,
    "Pion@@": 4662,
    "Natur": 4663,
    "Mem@@": 4664,
    "Frie@@": 4665,
    "Dom@@": 4666,
    "Bezirks": 4667,
    "Ange@@": 4668,
    "Aktiv@@": 4669,
    "Öl@@": 4670,
    "zwölf": 4671,
    "zwe@@": 4672,
    "verwand@@": 4673,
    "ordin@@": 4674,
    "ns": 4675,
    "musi@@": 4676,
    "mente": 4677,
    "ieb@@": 4678,
    "identi@@": 4679,
    "genannt": 4680,
    "ga": 4681,
    "bringen": 4682,
    "boo@@": 4683,
    "ble": 4684,
    "Zy@@": 4685,
    "Werbe@@": 4686,
    "Tages@@": 4687,
    "Sun@@": 4688,
    "Nachfolger": 4689,
    "Modell": 4690,
    "Lebensmittel@@": 4691,
    "Koh@@": 4692,
    "Gramm@@": 4693,
    "Forschung": 4694,
    "Bildungs@@": 4695,
    "üsse": 4696,
    "ähnlichen": 4697,
    "ong@@": 4698,
    "küh@@": 4699,
    "itten": 4700,
    "itt": 4701,
    "holte": 4702,
    "hieß": 4703,
    "gsten": 4704,
    "griffen": 4705,
    "gerin@@": 4706,
    "fertig@@": 4707,
    "dün@@": 4708,
    "bungen": 4709,
    "buch": 4710,
    "beschrieb": 4711,
    "ani@@": 4712,
    "aktuelle": 4713,
    "Union": 4714,
    "Tit@@": 4715,
    "Tiere": 4716,
    "Technologie": 4717,
    "Sonne": 4718,
    "Sied@@": 4719,
    "Rus@@": 4720,
    "Onkel": 4721,
    "Kultur": 4722,
    "Haw@@": 4723,
    "Funktionen": 4724,
    "Flori@@": 4725,
    "Eigent@@": 4726,
    "Dame": 4727,
    "Chi@@": 4728,
    "Bern@@": 4729,
    "Air": 4730,
    "ös@@": 4731,
    "änder": 4732,
    "wenigen": 4733,
    "vern@@": 4734,
    "top@@": 4735,
    "tat": 4736,
    "steigen@@": 4737,
    "spann@@": 4738,
    "schriften": 4739,
    "ph": 4740,
    "ith@@": 4741,
    "anen": 4742,
    "ams": 4743,
    "ama": 4744,
    "USA": 4745,
    "Sci@@": 4746,
    "Schriftstell@@": 4747,
    "Meer@@": 4748,
    "Medien": 4749,
    "Lor@@": 4750,
    "Kommun@@": 4751,
    "Gebieten": 4752,
    "Ehe": 4753,
    "Dru@@": 4754,
    "Brot@@": 4755,
    "Abteilung": 4756,
    "é@@": 4757,
    "älterer": 4758,
    "stoff": 4759,
    "sichts@@": 4760,
    "schir@@": 4761,
    "möglich": 4762,
    "konserv@@": 4763,
    "ile": 4764,
    "herunter@@": 4765,
    "geschn@@": 4766,
    "eten": 4767,
    "ena": 4768,
    "bild": 4769,
    "beinhaltet": 4770,
    "alismus": 4771,
    "Weihnachts@@": 4772,
    "Theater@@": 4773,
    "Sü@@": 4774,
    "Spitznamen": 4775,
    "Sonn@@": 4776,
    "Rit@@": 4777,
    "Ram@@": 4778,
    "Lehrer": 4779,
    "Handels@@": 4780,
    "Großbritannien": 4781,
    "Grand": 4782,
    "Gir@@": 4783,
    "Fünf": 4784,
    "Fern@@": 4785,
    "Bibliothe@@": 4786,
    "Beh@@": 4787,
    "ühr@@": 4788,
    "teilen": 4789,
    "rieb": 4790,
    "prakti@@": 4791,
    "pen@@": 4792,
    "liter@@": 4793,
    "kts": 4794,
    "halt": 4795,
    "fän@@": 4796,
    "erzielte": 4797,
    "erfolgt": 4798,
    "braun@@": 4799,
    "benö@@": 4800,
    "aturen": 4801,
    "Vorsitzender": 4802,
    "Systeme": 4803,
    "Sto@@": 4804,
    "Staat": 4805,
    "Slo@@": 4806,
    "Schnee": 4807,
    "Milli@@": 4808,
    "Literatur": 4809,
    "Leg@@": 4810,
    "Jahrhunder@@": 4811,
    "Jag@@": 4812,
    "Hügel": 4813,
    "Green": 4814,
    "Franc@@": 4815,
    "Figuren": 4816,
    "Corn@@": 4817,
    "Bar": 4818,
    "stamm@@": 4819,
    "rote": 4820,
    "nungs@@": 4821,
    "nisse": 4822,
    "mussten": 4823,
    "lia": 4824,
    "häus@@": 4825,
    "gehend": 4826,
    "gebäude": 4827,
    "bekam": 4828,
    "ante": 4829,
    "ano": 4830,
    "Veranstal@@": 4831,
    "Schön@@": 4832,
    "Moun@@": 4833,
    "Kreuz@@": 4834,
    "Heiligen": 4835,
    "Dokument@@": 4836,
    "China": 4837,
    "Amts@@": 4838,
    "Akt@@": 4839,
    "”@@": 4840,
    "til@@": 4841,
    "hören": 4842,
    "hoff@@": 4843,
    "erer": 4844,
    "entwickelt": 4845,
    "ener": 4846,
    "ehen": 4847,
    "dunkel@@": 4848,
    "brauner": 4849,
    "Williams": 4850,
    "Studien": 4851,
    "Sicherheit": 4852,
    "Manager": 4853,
    "Komment@@": 4854,
    "Hur@@": 4855,
    "Geträn@@": 4856,
    "Einkaufs@@": 4857,
    "Direktor": 4858,
    "Bilder": 4859,
    "Aspe@@": 4860,
    "Alt@@": 4861,
    "Abschl@@": 4862,
    "zimmer": 4863,
    "wirst": 4864,
    "uellen": 4865,
    "täu@@": 4866,
    "trop@@": 4867,
    "tive": 4868,
    "sorg@@": 4869,
    "produzierte": 4870,
    "nat@@": 4871,
    "kleinere": 4872,
    "interess@@": 4873,
    "illen": 4874,
    "hörte": 4875,
    "gespielt": 4876,
    "europäischen": 4877,
    "entfernt": 4878,
    "dein": 4879,
    "aliforn@@": 4880,
    "Verb@@": 4881,
    "United": 4882,
    "Termin@@": 4883,
    "Stau@@": 4884,
    "Star": 4885,
    "Schü@@": 4886,
    "Old": 4887,
    "Ni@@": 4888,
    "Mensch@@": 4889,
    "Lösung": 4890,
    "Louis@@": 4891,
    "Lee": 4892,
    "Lager@@": 4893,
    "Krankenhaus": 4894,
    "Institu@@": 4895,
    "Hö@@": 4896,
    "Genau": 4897,
    "Firma": 4898,
    "Filmen": 4899,
    "Felsen": 4900,
    "Exper@@": 4901,
    "Big": 4902,
    "Amerikan@@": 4903,
    "Änderungen": 4904,
    "tnis": 4905,
    "setzen": 4906,
    "schläge": 4907,
    "perfe@@": 4908,
    "ktions@@": 4909,
    "herum": 4910,
    "galt": 4911,
    "endet": 4912,
    "dopp@@": 4913,
    "dische": 4914,
    "dienst@@": 4915,
    "automat@@": 4916,
    "Trainer": 4917,
    "Süß@@": 4918,
    "Sitz@@": 4919,
    "Schrift@@": 4920,
    "Ric@@": 4921,
    "Programme": 4922,
    "Party": 4923,
    "Oper@@": 4924,
    "Minuten": 4925,
    "Küste": 4926,
    "Bauern@@": 4927,
    "Ausdruck": 4928,
    "Aff@@": 4929,
    "äußerst": 4930,
    "äumen": 4931,
    "wissen": 4932,
    "umfassen": 4933,
    "stä@@": 4934,
    "rein@@": 4935,
    "psych@@": 4936,
    "ona": 4937,
    "old": 4938,
    "offiziellen": 4939,
    "leiter": 4940,
    "lautet": 4941,
    "lands": 4942,
    "gruppen": 4943,
    "glei@@": 4944,
    "gerei@@": 4945,
    "fung@@": 4946,
    "fig@@": 4947,
    "charakter@@": 4948,
    "Wochen@@": 4949,
    "Wash@@": 4950,
    "Unsere": 4951,
    "Texas": 4952,
    "Spann@@": 4953,
    "Popul@@": 4954,
    "Pferd": 4955,
    "Little": 4956,
    "Ins@@": 4957,
    "Get@@": 4958,
    "Gemälde": 4959,
    "Eri@@": 4960,
    "win": 4961,
    "unser": 4962,
    "tru@@": 4963,
    "sinn@@": 4964,
    "richten@@": 4965,
    "ordnung": 4966,
    "mitten": 4967,
    "letzter": 4968,
    "jährlich": 4969,
    "igung": 4970,
    "geord@@": 4971,
    "fünfzig": 4972,
    "fluss": 4973,
    "exist@@": 4974,
    "erhielten": 4975,
    "einzelnen": 4976,
    "bezirk": 4977,
    "besondere": 4978,
    "beein@@": 4979,
    "astro@@": 4980,
    "ark": 4981,
    "Stamm@@": 4982,
    "Solche": 4983,
    "Regel@@": 4984,
    "Records": 4985,
    "Opfer": 4986,
    "Kraft": 4987,
    "Hoff@@": 4988,
    "Himmel": 4989,
    "Gattung": 4990,
    "Foto": 4991,
    "Erz@@": 4992,
    "Enkel@@": 4993,
    "Deshalb": 4994,
    "Comm@@": 4995,
    "Alexander": 4996,
    "schauen": 4997,
    "poli@@": 4998,
    "nes": 4999,
    "metho@@": 5000,
    "kanadischen": 5001,
    "inner@@": 5002,
    "ingt": 5003,
    "hob": 5004,
    "halts@@": 5005,
    "groß": 5006,
    "ersta@@": 5007,
    "ennen": 5008,
    "enge": 5009,
    "dun@@": 5010,
    "ala": 5011,
    "Zer@@": 5012,
    "Zahlen": 5013,
    "Univer@@": 5014,
    "Schau@@": 5015,
    "Satz": 5016,
    "Rober@@": 5017,
    "Publikum": 5018,
    "It@@": 5019,
    "Indien": 5020,
    "Hop@@": 5021,
    "Denk@@": 5022,
    "älteren": 5023,
    "zehnten": 5024,
    "vat@@": 5025,
    "undzwanzig": 5026,
    "umfang@@": 5027,
    "schli@@": 5028,
    "quenz": 5029,
    "mond": 5030,
    "konzentr@@": 5031,
    "inen@@": 5032,
    "ihr@@": 5033,
    "gliche": 5034,
    "gerte": 5035,
    "französische": 5036,
    "ennung": 5037,
    "einiger": 5038,
    "ckung": 5039,
    "blick": 5040,
    "beherbergt": 5041,
    "Wett@@": 5042,
    "Verfahren": 5043,
    "Umwelt@@": 5044,
    "Stud@@": 5045,
    "Seh@@": 5046,
    "Rum@@": 5047,
    "Ruf": 5048,
    "Rand": 5049,
    "Persön@@": 5050,
    "Pas@@": 5051,
    "Niemand": 5052,
    "Mär@@": 5053,
    "Miner@@": 5054,
    "Kä@@": 5055,
    "Konstru@@": 5056,
    "Kell@@": 5057,
    "Gesundheits@@": 5058,
    "Funktion": 5059,
    "Ei@@": 5060,
    "Demokrat@@": 5061,
    "Community": 5062,
    "Barr@@": 5063,
    "vollen": 5064,
    "versuchte": 5065,
    "unabhängig": 5066,
    "sur@@": 5067,
    "setzten": 5068,
    "schnitt": 5069,
    "schieden@@": 5070,
    "ri": 5071,
    "res": 5072,
    "mt": 5073,
    "morgen": 5074,
    "latein@@": 5075,
    "folgten": 5076,
    "erreichte": 5077,
    "erheb@@": 5078,
    "entlich": 5079,
    "engag@@": 5080,
    "dreißig": 5081,
    "chinesischen": 5082,
    "beru@@": 5083,
    "assung": 5084,
    "World": 5085,
    "Vorort": 5086,
    "Tot@@": 5087,
    "St.": 5088,
    "Sind": 5089,
    "Sem@@": 5090,
    "Schulbezirk": 5091,
    "Schriftsteller": 5092,
    "Quelle": 5093,
    "Paris": 5094,
    "Nutz@@": 5095,
    "Nar@@": 5096,
    "Nachbar@@": 5097,
    "Magaz@@": 5098,
    "Fün@@": 5099,
    "Fähigkeiten": 5100,
    "Bun@@": 5101,
    "Bildung": 5102,
    "Arm": 5103,
    "Angel@@": 5104,
    "ziel@@": 5105,
    "wand": 5106,
    "tür@@": 5107,
    "traditionelle": 5108,
    "tigten": 5109,
    "stete": 5110,
    "stellvertre@@": 5111,
    "starr@@": 5112,
    "sig@@": 5113,
    "selts@@": 5114,
    "orien": 5115,
    "neg@@": 5116,
    "internation@@": 5117,
    "hem@@": 5118,
    "grupp@@": 5119,
    "gon@@": 5120,
    "eut@@": 5121,
    "entstand": 5122,
    "antwort@@": 5123,
    "Zusammen": 5124,
    "Verbin@@": 5125,
    "Produkt": 5126,
    "Pon@@": 5127,
    "Männern": 5128,
    "Mom@@": 5129,
    "Midd@@": 5130,
    "Meilen": 5131,
    "Lassen": 5132,
    "Königin": 5133,
    "King": 5134,
    "Festival": 5135,
    "Chic@@": 5136,
    "Ah@@": 5137,
    "weder": 5138,
    "tags@@": 5139,
    "post@@": 5140,
    "ott": 5141,
    "näch@@": 5142,
    "musst": 5143,
    "kli@@": 5144,
    "hil@@": 5145,
    "endgül@@": 5146,
    "eil": 5147,
    "digt": 5148,
    "ay": 5149,
    "Start@@": 5150,
    "Rückkehr": 5151,
    "Robot@@": 5152,
    "Psych@@": 5153,
    "Prü@@": 5154,
    "Nahr@@": 5155,
    "Nachmittag": 5156,
    "Massachus@@": 5157,
    "Krat@@": 5158,
    "Herstellung": 5159,
    "Hat": 5160,
    "Glück": 5161,
    "Garten": 5162,
    "Fr@@": 5163,
    "Dr.": 5164,
    "Diale@@": 5165,
    "Brüder": 5166,
    "wid@@": 5167,
    "stimmte": 5168,
    "station@@": 5169,
    "schuss": 5170,
    "russ@@": 5171,
    "rist@@": 5172,
    "rick@@": 5173,
    "nehme": 5174,
    "natürlichen": 5175,
    "lernte": 5176,
    "inge": 5177,
    "indischen": 5178,
    "halte": 5179,
    "gezogen": 5180,
    "getan": 5181,
    "geschütz@@": 5182,
    "fühlte": 5183,
    "deh@@": 5184,
    "dauerte": 5185,
    "chem@@": 5186,
    "Zusammenhang": 5187,
    "Zivil@@": 5188,
    "Woh@@": 5189,
    "Mun@@": 5190,
    "Minist@@": 5191,
    "Innerhalb": 5192,
    "Herrschaft": 5193,
    "Größ@@": 5194,
    "Great": 5195,
    "Erfahrung": 5196,
    "Brief@@": 5197,
    "äufer": 5198,
    "wa": 5199,
    "tele@@": 5200,
    "stehende": 5201,
    "stattdessen": 5202,
    "prü@@": 5203,
    "pflich@@": 5204,
    "nei@@": 5205,
    "ländischen": 5206,
    "lichem": 5207,
    "kle@@": 5208,
    "jährige": 5209,
    "ha": 5210,
    "gefangen": 5211,
    "gebr@@": 5212,
    "atz": 5213,
    "Zentral@@": 5214,
    "Strom@@": 5215,
    "Patienten": 5216,
    "Mir": 5217,
    "Mehrheit": 5218,
    "Masch@@": 5219,
    "Lewis": 5220,
    "Last@@": 5221,
    "Joh@@": 5222,
    "Jahrzeh@@": 5223,
    "Gut@@": 5224,
    "Goo@@": 5225,
    "Flei@@": 5226,
    "Cast@@": 5227,
    "Brun@@": 5228,
    "Bevor": 5229,
    "Baum": 5230,
    "umfasste": 5231,
    "tendlich": 5232,
    "teilte": 5233,
    "schmerz@@": 5234,
    "schlüss@@": 5235,
    "orte": 5236,
    "oberen": 5237,
    "löste": 5238,
    "lis": 5239,
    "kombin@@": 5240,
    "haupt@@": 5241,
    "grei@@": 5242,
    "führende": 5243,
    "frühe": 5244,
    "fläch@@": 5245,
    "ath": 5246,
    "alisten": 5247,
    "Wider@@": 5248,
    "Treffen": 5249,
    "Tal": 5250,
    "Soldaten": 5251,
    "Marine@@": 5252,
    "Kapitän": 5253,
    "Kais@@": 5254,
    "Gründer": 5255,
    "Gibt": 5256,
    "Gefängnis": 5257,
    "East@@": 5258,
    "windig@@": 5259,
    "stör@@": 5260,
    "spor@@": 5261,
    "schneller": 5262,
    "reag@@": 5263,
    "ole": 5264,
    "nie@@": 5265,
    "häufigsten": 5266,
    "hätten": 5267,
    "haar@@": 5268,
    "fein@@": 5269,
    "daraufhin": 5270,
    "bon@@": 5271,
    "bis@@": 5272,
    "beschä@@": 5273,
    "bes": 5274,
    "ash": 5275,
    "alog@@": 5276,
    "abhän@@": 5277,
    "Zusätzlich": 5278,
    "Zusammenarbeit": 5279,
    "Zukunft": 5280,
    "Wert": 5281,
    "Ve@@": 5282,
    "Technolog@@": 5283,
    "Prie@@": 5284,
    "Pit@@": 5285,
    "Parks": 5286,
    "Musiker": 5287,
    "Music": 5288,
    "Methoden": 5289,
    "Memorial": 5290,
    "Max@@": 5291,
    "Louis": 5292,
    "Lam@@": 5293,
    "Königreich": 5294,
    "Krater": 5295,
    "Kit@@": 5296,
    "Jung@@": 5297,
    "Jahrhundert": 5298,
    "Fro@@": 5299,
    "Company": 5300,
    "Boston": 5301,
    "Bell@@": 5302,
    "Augu@@": 5303,
    "öffnete": 5304,
    "wärts": 5305,
    "wn": 5306,
    "verwendeten": 5307,
    "ull": 5308,
    "sieb@@": 5309,
    "sel": 5310,
    "schrift": 5311,
    "rel@@": 5312,
    "offen": 5313,
    "nt": 5314,
    "linken": 5315,
    "körper@@": 5316,
    "gestellt": 5317,
    "ansässi@@": 5318,
    "anda": 5319,
    "Zi@@": 5320,
    "Serv@@": 5321,
    "Route": 5322,
    "Präsidenten": 5323,
    "Pfarr@@": 5324,
    "Pennsyl@@": 5325,
    "Kön@@": 5326,
    "Krieges": 5327,
    "Kongress@@": 5328,
    "Jeans": 5329,
    "Fron@@": 5330,
    "Fahrer": 5331,
    "Brit@@": 5332,
    "Blum@@": 5333,
    "Betrieb": 5334,
    "Beobach@@": 5335,
    "Auszeichnung": 5336,
    "Alles": 5337,
    "überall": 5338,
    "transpor@@": 5339,
    "tiere": 5340,
    "sprü@@": 5341,
    "shire": 5342,
    "och@@": 5343,
    "medizin@@": 5344,
    "isierte": 5345,
    "io": 5346,
    "intensi@@": 5347,
    "han": 5348,
    "half": 5349,
    "gien": 5350,
    "genannten": 5351,
    "fahrt": 5352,
    "erstre@@": 5353,
    "dlichen": 5354,
    "Zeu@@": 5355,
    "Wissenschaft@@": 5356,
    "Wass@@": 5357,
    "Texte": 5358,
    "Schauspielerin": 5359,
    "Red": 5360,
    "Pick@@": 5361,
    "Kreis@@": 5362,
    "Forsch@@": 5363,
    "Emm@@": 5364,
    "Chris": 5365,
    "Andre@@": 5366,
    "wandte": 5367,
    "uch": 5368,
    "statist@@": 5369,
    "schü@@": 5370,
    "italien@@": 5371,
    "inzwischen": 5372,
    "griechischen": 5373,
    "glie@@": 5374,
    "gleichzeitig": 5375,
    "eingesetzt": 5376,
    "dent@@": 5377,
    "day": 5378,
    "cre@@": 5379,
    "beauf@@": 5380,
    "beam@@": 5381,
    "arbeiter": 5382,
    "allgemeine": 5383,
    "Züge": 5384,
    "Ten@@": 5385,
    "Spit@@": 5386,
    "Siedlung": 5387,
    "Schott@@": 5388,
    "Praxis": 5389,
    "Nov@@": 5390,
    "Modelle": 5391,
    "Kritik": 5392,
    "Ihm": 5393,
    "Grenzen": 5394,
    "Erinner@@": 5395,
    "Eisen@@": 5396,
    "Dank": 5397,
    "Cher@@": 5398,
    "Büro": 5399,
    "’@@": 5400,
    "zeug": 5401,
    "tis": 5402,
    "tem@@": 5403,
    "sätz@@": 5404,
    "spit@@": 5405,
    "solchen": 5406,
    "seitdem": 5407,
    "reserv@@": 5408,
    "proble@@": 5409,
    "not@@": 5410,
    "nal": 5411,
    "kür@@": 5412,
    "jün@@": 5413,
    "itäten": 5414,
    "höch@@": 5415,
    "glichen": 5416,
    "Verbess@@": 5417,
    "Tradition": 5418,
    "Ton": 5419,
    "Studium": 5420,
    "Stro@@": 5421,
    "Steve": 5422,
    "Stadion": 5423,
    "Sicher@@": 5424,
    "Shar@@": 5425,
    "Reise@@": 5426,
    "Pflanzen": 5427,
    "Ih@@": 5428,
    "Gas@@": 5429,
    "Erschein@@": 5430,
    "Auswirkungen": 5431,
    "vierte": 5432,
    "stärk@@": 5433,
    "station": 5434,
    "spruch": 5435,
    "rigen": 5436,
    "reicher": 5437,
    "otte": 5438,
    "offiziell": 5439,
    "mau@@": 5440,
    "lik@@": 5441,
    "lieb@@": 5442,
    "ild": 5443,
    "grau@@": 5444,
    "gabe@@": 5445,
    "ethn@@": 5446,
    "erober@@": 5447,
    "Wissen": 5448,
    "Wagen": 5449,
    "Tante": 5450,
    "Stad@@": 5451,
    "Society": 5452,
    "Schrit@@": 5453,
    "Schla@@": 5454,
    "Organisationen": 5455,
    "Offiz@@": 5456,
    "Mission": 5457,
    "Kirchen@@": 5458,
    "Gü@@": 5459,
    "Grü@@": 5460,
    "Finde": 5461,
    "Alex@@": 5462,
    "verkehr": 5463,
    "stung": 5464,
    "still@@": 5465,
    "pfen": 5466,
    "more": 5467,
    "meines": 5468,
    "keiten": 5469,
    "hervorra@@": 5470,
    "gelegene": 5471,
    "geber": 5472,
    "fing": 5473,
    "bisschen": 5474,
    "bende": 5475,
    "beinhal@@": 5476,
    "Vorder@@": 5477,
    "Städten": 5478,
    "Stä@@": 5479,
    "Situation": 5480,
    "Restauran@@": 5481,
    "Rak@@": 5482,
    "Monaten": 5483,
    "Joe": 5484,
    "Grafschaft": 5485,
    "Eth@@": 5486,
    "Division": 5487,
    "Brie@@": 5488,
    "Ansatz": 5489,
    "Anhänger": 5490,
    "0": 5491,
    "zün@@": 5492,
    "versucht": 5493,
    "unseren": 5494,
    "sub@@": 5495,
    "schöne": 5496,
    "rupp@@": 5497,
    "rennt": 5498,
    "religi@@": 5499,
    "reisen": 5500,
    "reis@@": 5501,
    "rechten": 5502,
    "mäß@@": 5503,
    "male": 5504,
    "könig@@": 5505,
    "haber": 5506,
    "gre@@": 5507,
    "fläche": 5508,
    "ehn": 5509,
    "beu@@": 5510,
    "ands": 5511,
    "ami@@": 5512,
    "Stuhl": 5513,
    "Smit@@": 5514,
    "Küsten@@": 5515,
    "Krank@@": 5516,
    "Hande@@": 5517,
    "Gefän@@": 5518,
    "Gebir@@": 5519,
    "Dabei": 5520,
    "Computer": 5521,
    "Beat@@": 5522,
    "Beam@@": 5523,
    "Ausgabe": 5524,
    "August": 5525,
    "Altern@@": 5526,
    "vieler": 5527,
    "unserer": 5528,
    "stau@@": 5529,
    "pal@@": 5530,
    "nischen": 5531,
    "ktiv": 5532,
    "ino": 5533,
    "freien": 5534,
    "erstreckt": 5535,
    "ance": 5536,
    "abe": 5537,
    "Virginia": 5538,
    "Stücke": 5539,
    "Shir@@": 5540,
    "Santa": 5541,
    "Preis@@": 5542,
    "Ner@@": 5543,
    "May@@": 5544,
    "Mathem@@": 5545,
    "Kalifornien": 5546,
    "Hay@@": 5547,
    "Göt@@": 5548,
    "Dou@@": 5549,
    "zweiter": 5550,
    "zweit@@": 5551,
    "zierte": 5552,
    "ther": 5553,
    "terin": 5554,
    "stall@@": 5555,
    "schließt": 5556,
    "ose": 5557,
    "onie": 5558,
    "mitglie@@": 5559,
    "machten": 5560,
    "lächeln@@": 5561,
    "ly": 5562,
    "kürzlich": 5563,
    "konf@@": 5564,
    "isiert": 5565,
    "hrop@@": 5566,
    "größtenteils": 5567,
    "grenz@@": 5568,
    "fluss@@": 5569,
    "effizi@@": 5570,
    "dür@@": 5571,
    "bir@@": 5572,
    "betrachtet": 5573,
    "begei@@": 5574,
    "arren": 5575,
    "annt": 5576,
    "Zit@@": 5577,
    "Zeichen": 5578,
    "Wäl@@": 5579,
    "Wis@@": 5580,
    "Verwaltungssitz": 5581,
    "Säu@@": 5582,
    "Sänger": 5583,
    "Spitze": 5584,
    "Schutz": 5585,
    "Natürlich": 5586,
    "Lev@@": 5587,
    "Lern@@": 5588,
    "Kart@@": 5589,
    "Farb@@": 5590,
    "Energie@@": 5591,
    "Einrichtungen": 5592,
    "Eich@@": 5593,
    "Druck@@": 5594,
    "Coll@@": 5595,
    "ye": 5596,
    "westliche": 5597,
    "versor@@": 5598,
    "teilungen": 5599,
    "stige": 5600,
    "spru@@": 5601,
    "sprachen": 5602,
    "schlossen": 5603,
    "scheinen": 5604,
    "rechte": 5605,
    "passiert": 5606,
    "mannschaft": 5607,
    "lex": 5608,
    "igsten": 5609,
    "ignor@@": 5610,
    "hi": 5611,
    "berühmten": 5612,
    "album": 5613,
    "aden": 5614,
    "Software": 5615,
    "Pflanzen@@": 5616,
    "Ohne": 5617,
    "Noch": 5618,
    "Long": 5619,
    "Klo@@": 5620,
    "Kaiser": 5621,
    "Hose": 5622,
    "Himm@@": 5623,
    "Gehir@@": 5624,
    "Eröff@@": 5625,
    "Erklärung": 5626,
    "Dri@@": 5627,
    "Diag@@": 5628,
    "Darstellung": 5629,
    "Columbia": 5630,
    "Church": 5631,
    "Ce@@": 5632,
    "Broad@@": 5633,
    "Blue": 5634,
    "Beglei@@": 5635,
    "Ara@@": 5636,
    "Überreste": 5637,
    "zentralen": 5638,
    "ym": 5639,
    "wör@@": 5640,
    "teu@@": 5641,
    "tender": 5642,
    "sonn@@": 5643,
    "richtig": 5644,
    "opti@@": 5645,
    "onische": 5646,
    "nutzen": 5647,
    "mie@@": 5648,
    "mas@@": 5649,
    "klei@@": 5650,
    "insgesamt": 5651,
    "ikt@@": 5652,
    "häuser": 5653,
    "herrsch@@": 5654,
    "haften": 5655,
    "getötet": 5656,
    "chester": 5657,
    "aufgenommen": 5658,
    "atz@@": 5659,
    "Tor": 5660,
    "Studios": 5661,
    "Schreiben": 5662,
    "Reservierung": 5663,
    "Rail@@": 5664,
    "Prop@@": 5665,
    "Oak@@": 5666,
    "Nah@@": 5667,
    "Mid@@": 5668,
    "Maskottchen": 5669,
    "Krankheit": 5670,
    "Konserv@@": 5671,
    "Internation@@": 5672,
    "Golf@@": 5673,
    "Elektr@@": 5674,
    "Dem": 5675,
    "Ausgaben": 5676,
    "ämm@@": 5677,
    "wohnt": 5678,
    "veran@@": 5679,
    "umin@@": 5680,
    "umf@@": 5681,
    "tin": 5682,
    "tierten": 5683,
    "repar@@": 5684,
    "rah@@": 5685,
    "malen": 5686,
    "kehrt": 5687,
    "jo@@": 5688,
    "iker": 5689,
    "hart": 5690,
    "frü@@": 5691,
    "ence": 5692,
    "ek": 5693,
    "eigent@@": 5694,
    "dunklen": 5695,
    "dale": 5696,
    "atte": 5697,
    "alien": 5698,
    "Zwischen@@": 5699,
    "Van@@": 5700,
    "Thom@@": 5701,
    "Taylor": 5702,
    "Religi@@": 5703,
    "Portug@@": 5704,
    "Parlament": 5705,
    "Mand@@": 5706,
    "Key@@": 5707,
    "Fru@@": 5708,
    "Est@@": 5709,
    "Budd@@": 5710,
    "Bedingungen": 5711,
    "Award": 5712,
    "Anwalt": 5713,
    "Angst": 5714,
    "zahl": 5715,
    "wäss@@": 5716,
    "ware": 5717,
    "tut": 5718,
    "stens": 5719,
    "schlag": 5720,
    "park": 5721,
    "mitglied": 5722,
    "ländische": 5723,
    "kreu@@": 5724,
    "krei@@": 5725,
    "kampf": 5726,
    "gegeben": 5727,
    "fts@@": 5728,
    "drän@@": 5729,
    "bisher": 5730,
    "atten": 5731,
    "ada": 5732,
    "Wirk@@": 5733,
    "Text@@": 5734,
    "Städ@@": 5735,
    "Stir@@": 5736,
    "Stipen@@": 5737,
    "Service": 5738,
    "Rollen": 5739,
    "Rap@@": 5740,
    "Quar@@": 5741,
    "Port": 5742,
    "Nan@@": 5743,
    "Mitgliedern": 5744,
    "Mir@@": 5745,
    "Kostü@@": 5746,
    "Hier@@": 5747,
    "Feuerwehr@@": 5748,
    "Ergeb@@": 5749,
    "Distrikt": 5750,
    "Dach@@": 5751,
    "Charakter": 5752,
    "Buck@@": 5753,
    "Argum@@": 5754,
    "zeitgenöss@@": 5755,
    "wen": 5756,
    "verkaufte": 5757,
    "schwimm@@": 5758,
    "miss@@": 5759,
    "liste": 5760,
    "halb@@": 5761,
    "erreicht": 5762,
    "einfache": 5763,
    "dienste": 5764,
    "befanden": 5765,
    "beendete": 5766,
    "Tat": 5767,
    "Spring@@": 5768,
    "Scott": 5769,
    "Schach@@": 5770,
    "Regie": 5771,
    "Pho@@": 5772,
    "Nachrichten": 5773,
    "Marke": 5774,
    "Kleid": 5775,
    "Gold": 5776,
    "Gewä@@": 5777,
    "Geschle@@": 5778,
    "Gem@@": 5779,
    "Fig@@": 5780,
    "Eines": 5781,
    "Diskus@@": 5782,
    "C.": 5783,
    "British": 5784,
    "Ass@@": 5785,
    "überwiegend": 5786,
    "äng@@": 5787,
    "zep@@": 5788,
    "yan": 5789,
    "vollständi@@": 5790,
    "verlassen": 5791,
    "terte": 5792,
    "stiz@@": 5793,
    "orig@@": 5794,
    "mögen": 5795,
    "materi@@": 5796,
    "masch@@": 5797,
    "lität": 5798,
    "künstler@@": 5799,
    "ingu@@": 5800,
    "gänge": 5801,
    "größer": 5802,
    "gige": 5803,
    "fung": 5804,
    "anzen": 5805,
    "angem@@": 5806,
    "Zimmer": 5807,
    "Technik": 5808,
    "Stor@@": 5809,
    "Sich@@": 5810,
    "Sex@@": 5811,
    "Rech@@": 5812,
    "Pläne": 5813,
    "Pad@@": 5814,
    "Over@@": 5815,
    "Nomin@@": 5816,
    "Mah@@": 5817,
    "Lit@@": 5818,
    "Kern@@": 5819,
    "Kandidaten": 5820,
    "Hersteller": 5821,
    "Exempl@@": 5822,
    "Erzäh@@": 5823,
    "Ecke": 5824,
    "Dutz@@": 5825,
    "Cho@@": 5826,
    "Besonder@@": 5827,
    "Andrew": 5828,
    "za": 5829,
    "vollständige": 5830,
    "trifft": 5831,
    "tierung": 5832,
    "rank@@": 5833,
    "mäh@@": 5834,
    "mus": 5835,
    "menschlichen": 5836,
    "erklärte": 5837,
    "alo@@": 5838,
    "abi@@": 5839,
    "Wirt@@": 5840,
    "Viertel": 5841,
    "Verkauf@@": 5842,
    "Tony": 5843,
    "Swe@@": 5844,
    "Steuer@@": 5845,
    "Sign@@": 5846,
    "Rund@@": 5847,
    "Public": 5848,
    "Namens@@": 5849,
    "Motor": 5850,
    "Milit@@": 5851,
    "Maria": 5852,
    "Katze": 5853,
    "Karten": 5854,
    "Feier@@": 5855,
    "Fair@@": 5856,
    "Einrichtung": 5857,
    "Dich@@": 5858,
    "Cr@@": 5859,
    "Bli@@": 5860,
    "Blei@@": 5861,
    "Bezir@@": 5862,
    "Astron@@": 5863,
    "Academy": 5864,
    "urg@@": 5865,
    "unteren": 5866,
    "trei@@": 5867,
    "treffen": 5868,
    "tens": 5869,
    "stücke": 5870,
    "schiff": 5871,
    "schaute": 5872,
    "prof@@": 5873,
    "kes": 5874,
    "ight": 5875,
    "geschlossen": 5876,
    "geren": 5877,
    "exp@@": 5878,
    "eth@@": 5879,
    "druck": 5880,
    "bat": 5881,
    "argum@@": 5882,
    "altern@@": 5883,
    "Vorfall": 5884,
    "Van": 5885,
    "Territ@@": 5886,
    "Teilnehmer": 5887,
    "Sum@@": 5888,
    "Stahl@@": 5889,
    "South@@": 5890,
    "Schnell@@": 5891,
    "Sab@@": 5892,
    "Pom@@": 5893,
    "Philosophie": 5894,
    "Landes": 5895,
    "Kirchen": 5896,
    "Herausforder@@": 5897,
    "Fas@@": 5898,
    "Denn@@": 5899,
    "Brad@@": 5900,
    "Allen": 5901,
    "Ag@@": 5902,
    "Abstamm@@": 5903,
    "ziehen": 5904,
    "wart": 5905,
    "tischen": 5906,
    "tief": 5907,
    "stimmt": 5908,
    "stet": 5909,
    "ral": 5910,
    "ola": 5911,
    "low": 5912,
    "ko": 5913,
    "klass@@": 5914,
    "ide": 5915,
    "gesagt": 5916,
    "fle@@": 5917,
    "eton": 5918,
    "dreimal": 5919,
    "bungs@@": 5920,
    "brenn@@": 5921,
    "berühmte": 5922,
    "bb@@": 5923,
    "Waffen": 5924,
    "Verfügung": 5925,
    "Sn@@": 5926,
    "Selbst": 5927,
    "Republik": 5928,
    "Refer@@": 5929,
    "Quad@@": 5930,
    "Punkte": 5931,
    "Patri@@": 5932,
    "Nummer": 5933,
    "Maß@@": 5934,
    "Kämpf@@": 5935,
    "Haar": 5936,
    "Effe@@": 5937,
    "Celia": 5938,
    "Aufgabe": 5939,
    "Arbeiter": 5940,
    "Anwendungen": 5941,
    "Alber@@": 5942,
    "unmittel@@": 5943,
    "roll@@": 5944,
    "orium": 5945,
    "offiz@@": 5946,
    "neh@@": 5947,
    "mung": 5948,
    "medi@@": 5949,
    "leitung": 5950,
    "instru@@": 5951,
    "hül@@": 5952,
    "hinzu": 5953,
    "gebiete": 5954,
    "führenden": 5955,
    "flächen@@": 5956,
    "erfor@@": 5957,
    "dürfen": 5958,
    "dienen": 5959,
    "deter": 5960,
    "dam@@": 5961,
    "braucht": 5962,
    "berech@@": 5963,
    "bemerkens@@": 5964,
    "Wirkung": 5965,
    "Universitäten": 5966,
    "Tepp@@": 5967,
    "Tabelle": 5968,
    "Stru@@": 5969,
    "Siedler": 5970,
    "Rezep@@": 5971,
    "Ret@@": 5972,
    "Mitglie@@": 5973,
    "Menschenmenge": 5974,
    "Lieblings@@": 5975,
    "Kritikern": 5976,
    "Kie@@": 5977,
    "Kamera": 5978,
    "Ideen": 5979,
    "Autoren": 5980,
    "Anwendung": 5981,
    "Anwen@@": 5982,
    "Akti@@": 5983,
    "Übersetzung": 5984,
    "zuver@@": 5985,
    "wodurch": 5986,
    "vest@@": 5987,
    "urm": 5988,
    "tain@@": 5989,
    "suche": 5990,
    "stammte": 5991,
    "sofern": 5992,
    "schwei@@": 5993,
    "schlägt": 5994,
    "schluss": 5995,
    "kos@@": 5996,
    "komplett": 5997,
    "iment@@": 5998,
    "igkeiten": 5999,
    "gelegen@@": 6000,
    "ftigen": 6001,
    "ersetzte": 6002,
    "ele": 6003,
    "deutsche": 6004,
    "demokrat@@": 6005,
    "braune": 6006,
    "betrieb": 6007,
    "Vorsitzende": 6008,
    "Unterschied": 6009,
    "Tä@@": 6010,
    "Spa@@": 6011,
    "Sonder@@": 6012,
    "Regionen": 6013,
    "Nap@@": 6014,
    "Miss": 6015,
    "Kontrover@@": 6016,
    "Gründen": 6017,
    "Gestal@@": 6018,
    "Früher": 6019,
    "Einheiten": 6020,
    "Eigenschaften": 6021,
    "Chem@@": 6022,
    "Bud@@": 6023,
    "Bin@@": 6024,
    "Bericht": 6025,
    "Associ@@": 6026,
    "Agen@@": 6027,
    "östliche": 6028,
    "urt": 6029,
    "stil": 6030,
    "rie": 6031,
    "ode": 6032,
    "mär@@": 6033,
    "lief@@": 6034,
    "lichste": 6035,
    "iell": 6036,
    "hoh@@": 6037,
    "gelte": 6038,
    "gefei@@": 6039,
    "frühere": 6040,
    "fort": 6041,
    "ehemaliger": 6042,
    "brech@@": 6043,
    "befrei@@": 6044,
    "bedeutende": 6045,
    "ativer": 6046,
    "arbeitung": 6047,
    "Zwischenzeit": 6048,
    "Verf@@": 6049,
    "Unterstütz@@": 6050,
    "Test": 6051,
    "Tempel": 6052,
    "Szene": 6053,
    "Stein": 6054,
    "Silber@@": 6055,
    "Pr@@": 6056,
    "Point": 6057,
    "Pfei@@": 6058,
    "Mul@@": 6059,
    "Mol@@": 6060,
    "Minister": 6061,
    "Lös@@": 6062,
    "Liebl@@": 6063,
    "Kunden": 6064,
    "Kritiker": 6065,
    "Kauf@@": 6066,
    "Kateg@@": 6067,
    "Junior": 6068,
    "Jackson": 6069,
    "Fähr@@": 6070,
    "Einen": 6071,
    "Davis": 6072,
    "Cin@@": 6073,
    "Bestandteil": 6074,
    "Basis": 6075,
    "Aufmerksamkeit": 6076,
    "Assist@@": 6077,
    "Arthur": 6078,
    "Ansichten": 6079,
    "Angeles": 6080,
    "wissenschaftliche": 6081,
    "wirft": 6082,
    "verfü@@": 6083,
    "stitu@@": 6084,
    "steller": 6085,
    "schwarz": 6086,
    "schaffte": 6087,
    "onischen": 6088,
    "namen": 6089,
    "mierte": 6090,
    "lass": 6091,
    "klär@@": 6092,
    "kir@@": 6093,
    "jüngeren": 6094,
    "jüngere": 6095,
    "irgendwo": 6096,
    "ils": 6097,
    "gig": 6098,
    "geschichte": 6099,
    "gebung": 6100,
    "entschul@@": 6101,
    "basi@@": 6102,
    "Zudem": 6103,
    "Zerstör@@": 6104,
    "Wald": 6105,
    "Verbindungen": 6106,
    "Tän@@": 6107,
    "Stern@@": 6108,
    "Sm@@": 6109,
    "Skate@@": 6110,
    "Schlüssel@@": 6111,
    "Schlüssel": 6112,
    "Proz@@": 6113,
    "Pass@@": 6114,
    "Mül@@": 6115,
    "Mund": 6116,
    "Marine": 6117,
    "Mana@@": 6118,
    "Höhe@@": 6119,
    "Großvater": 6120,
    "Gib": 6121,
    "Fels@@": 6122,
    "Ereignisse": 6123,
    "Ehren@@": 6124,
    "Diam@@": 6125,
    "Chef@@": 6126,
    "Blat@@": 6127,
    "Bereichen": 6128,
    "Auszeichnungen": 6129,
    "Auftritt": 6130,
    "äußer@@": 6131,
    "vierten": 6132,
    "van": 6133,
    "tour@@": 6134,
    "tiv@@": 6135,
    "tic": 6136,
    "stieß": 6137,
    "sist@@": 6138,
    "scheu@@": 6139,
    "pot@@": 6140,
    "ossen": 6141,
    "lin": 6142,
    "lebenden": 6143,
    "konzentriert": 6144,
    "itäts@@": 6145,
    "grä@@": 6146,
    "film": 6147,
    "dlicher": 6148,
    "dende": 6149,
    "beträch@@": 6150,
    "benannt": 6151,
    "australischen": 6152,
    "angeblich": 6153,
    "altung": 6154,
    "allgemeinen": 6155,
    "aktive": 6156,
    "Vertreter": 6157,
    "Treppe": 6158,
    "Staffel": 6159,
    "Rede": 6160,
    "Peri@@": 6161,
    "Orch@@": 6162,
    "Oberfläche": 6163,
    "Milch@@": 6164,
    "Kun@@": 6165,
    "Klima@@": 6166,
    "Keine": 6167,
    "Jac@@": 6168,
    "Holz": 6169,
    "Hamp@@": 6170,
    "För@@": 6171,
    "Fried@@": 6172,
    "Fehl@@": 6173,
    "Cent@@": 6174,
    "Brille": 6175,
    "Anweis@@": 6176,
    "zie@@": 6177,
    "worth": 6178,
    "wahrschein@@": 6179,
    "unabhängige": 6180,
    "ständ@@": 6181,
    "spekt@@": 6182,
    "organ@@": 6183,
    "laub@@": 6184,
    "iet": 6185,
    "ident@@": 6186,
    "finde": 6187,
    "extrem": 6188,
    "dunkl@@": 6189,
    "ctor": 6190,
    "brechen": 6191,
    "baute": 6192,
    "aut": 6193,
    "Weltkrieg": 6194,
    "Vögel": 6195,
    "Verwaltung": 6196,
    "Status": 6197,
    "Sek@@": 6198,
    "Physi@@": 6199,
    "Parteien": 6200,
    "Namens": 6201,
    "Mantel": 6202,
    "Lok@@": 6203,
    "Jim": 6204,
    "Höhe": 6205,
    "Häus@@": 6206,
    "Gras": 6207,
    "Gouver@@": 6208,
    "Eur@@": 6209,
    "E.": 6210,
    "Druck": 6211,
    "Chil@@": 6212,
    "öffentlich": 6213,
    "verlei@@": 6214,
    "verbra@@": 6215,
    "trag": 6216,
    "theit": 6217,
    "onien": 6218,
    "ologen": 6219,
    "notwen@@": 6220,
    "minister": 6221,
    "länger": 6222,
    "japanische": 6223,
    "höhere": 6224,
    "gelang": 6225,
    "erwarb": 6226,
    "dens": 6227,
    "deinen": 6228,
    "chern": 6229,
    "befeh@@": 6230,
    "beer@@": 6231,
    "attra@@": 6232,
    "Zweck": 6233,
    "Vergleich": 6234,
    "Touristen": 6235,
    "Stock": 6236,
    "Ski@@": 6237,
    "Schne@@": 6238,
    "Offen@@": 6239,
    "Mitt@@": 6240,
    "Micro@@": 6241,
    "Leuten": 6242,
    "Kombination": 6243,
    "Hub@@": 6244,
    "Gymna@@": 6245,
    "Falls": 6246,
    "Experi@@": 6247,
    "Energie": 6248,
    "Dig@@": 6249,
    "Clin@@": 6250,
    "Bezeichnung": 6251,
    "Benutz@@": 6252,
    "Beiträge": 6253,
    "öffent@@": 6254,
    "Ägyp@@": 6255,
    "ziert": 6256,
    "wahl": 6257,
    "vention@@": 6258,
    "sätze": 6259,
    "sport": 6260,
    "ood": 6261,
    "off": 6262,
    "natürliche": 6263,
    "män@@": 6264,
    "mont": 6265,
    "mmern": 6266,
    "mechan@@": 6267,
    "liber@@": 6268,
    "lers": 6269,
    "lan": 6270,
    "ini": 6271,
    "igt": 6272,
    "hom@@": 6273,
    "grenze": 6274,
    "gelassen": 6275,
    "ffs": 6276,
    "est": 6277,
    "ess": 6278,
    "bereitet": 6279,
    "benachbar@@": 6280,
    "Schwier@@": 6281,
    "Ricardo": 6282,
    "Männchen": 6283,
    "M.": 6284,
    "Leh@@": 6285,
    "Konzep@@": 6286,
    "Imm@@": 6287,
    "Hart@@": 6288,
    "Hafen": 6289,
    "Gä@@": 6290,
    "Folgen": 6291,
    "Feder@@": 6292,
    "Emp@@": 6293,
    "B": 6294,
    "Aufgaben": 6295,
    "As@@": 6296,
    "Anführer": 6297,
    "öß@@": 6298,
    "zwanzig": 6299,
    "view": 6300,
    "verwir@@": 6301,
    "une": 6302,
    "teilt": 6303,
    "struktur": 6304,
    "stische": 6305,
    "sollen": 6306,
    "rige": 6307,
    "riesigen": 6308,
    "reicht": 6309,
    "positi@@": 6310,
    "online": 6311,
    "nütz@@": 6312,
    "markt": 6313,
    "lub": 6314,
    "liebt": 6315,
    "korre@@": 6316,
    "katholischen": 6317,
    "jährigen": 6318,
    "inform@@": 6319,
    "ian": 6320,
    "grüne": 6321,
    "gramm": 6322,
    "genutzt": 6323,
    "gender": 6324,
    "daille": 6325,
    "cial": 6326,
    "chtete": 6327,
    "bul@@": 6328,
    "bewus@@": 6329,
    "beliebtes": 6330,
    "ask@@": 6331,
    "ami": 6332,
    "alter@@": 6333,
    "absol@@": 6334,
    "Zahn@@": 6335,
    "Weibchen": 6336,
    "Wegen": 6337,
    "Water@@": 6338,
    "Studien@@": 6339,
    "Spezies": 6340,
    "Pseu@@": 6341,
    "Ori@@": 6342,
    "Ordnung": 6343,
    "Oran@@": 6344,
    "Nig@@": 6345,
    "Millionen": 6346,
    "Mig@@": 6347,
    "Meer": 6348,
    "Lou@@": 6349,
    "Log@@": 6350,
    "Les@@": 6351,
    "Kommand@@": 6352,
    "Kanal": 6353,
    "Häuf@@": 6354,
    "Handel": 6355,
    "Ear@@": 6356,
    "Bang@@": 6357,
    "Avenue": 6358,
    "Aqu@@": 6359,
    "Angebot": 6360,
    "Americ@@": 6361,
    "Amate@@": 6362,
    "wards": 6363,
    "verschiedener": 6364,
    "verblei@@": 6365,
    "umgeben": 6366,
    "stren@@": 6367,
    "sprin@@": 6368,
    "serie": 6369,
    "schirm": 6370,
    "rieben": 6371,
    "olz": 6372,
    "lassung": 6373,
    "ki": 6374,
    "ines": 6375,
    "ind": 6376,
    "hilfe": 6377,
    "günst@@": 6378,
    "gewöhnliche": 6379,
    "füllt": 6380,
    "ester": 6381,
    "diag@@": 6382,
    "cs": 6383,
    "breite": 6384,
    "blü@@": 6385,
    "bein@@": 6386,
    "aum": 6387,
    "ammer": 6388,
    "ake": 6389,
    "Vil@@": 6390,
    "Verkauf": 6391,
    "Ufer": 6392,
    "Revolution": 6393,
    "Pir@@": 6394,
    "Myth@@": 6395,
    "Maschinen@@": 6396,
    "Länge": 6397,
    "Leider": 6398,
    "Geschäfte": 6399,
    "Gegenstand": 6400,
    "Florida": 6401,
    "Fernsehen": 6402,
    "Dir@@": 6403,
    "Cous@@": 6404,
    "Buff@@": 6405,
    "Australi@@": 6406,
    "ältesten": 6407,
    "äden": 6408,
    "verrin@@": 6409,
    "verbunden": 6410,
    "trock@@": 6411,
    "rup@@": 6412,
    "richtete": 6413,
    "ografie": 6414,
    "kandi@@": 6415,
    "jüdischen": 6416,
    "inischen": 6417,
    "funk@@": 6418,
    "flei@@": 6419,
    "ermu@@": 6420,
    "erhält": 6421,
    "eigentlich": 6422,
    "bzw.": 6423,
    "bekanntesten": 6424,
    "ax@@": 6425,
    "arab@@": 6426,
    "analy@@": 6427,
    "Zun@@": 6428,
    "Wör@@": 6429,
    "Wahlen": 6430,
    "W.": 6431,
    "Vaters": 6432,
    "Tok@@": 6433,
    "Stör@@": 6434,
    "Spar@@": 6435,
    "Singles": 6436,
    "September": 6437,
    "Sehr": 6438,
    "Mitglied@@": 6439,
    "Materi@@": 6440,
    "Klima": 6441,
    "H.": 6442,
    "Gor@@": 6443,
    "Freien": 6444,
    "Francis": 6445,
    "Flugzeuge": 6446,
    "Don": 6447,
    "Besatzung": 6448,
    "Absolv@@": 6449,
    "äche": 6450,
    "zweif@@": 6451,
    "zehn@@": 6452,
    "ystemen": 6453,
    "vielfäl@@": 6454,
    "verst@@": 6455,
    "verfügen": 6456,
    "unterscheidet": 6457,
    "typischerweise": 6458,
    "tradition@@": 6459,
    "sucht": 6460,
    "strecke": 6461,
    "sters": 6462,
    "springen": 6463,
    "sonst": 6464,
    "sem@@": 6465,
    "reu@@": 6466,
    "regionale": 6467,
    "private": 6468,
    "omi@@": 6469,
    "natür@@": 6470,
    "lediglich": 6471,
    "kin": 6472,
    "jährliche": 6473,
    "gewal@@": 6474,
    "getr@@": 6475,
    "genauso": 6476,
    "führungen": 6477,
    "ession@@": 6478,
    "dauert": 6479,
    "bisch@@": 6480,
    "annen": 6481,
    "ames": 6482,
    "aktuell": 6483,
    "Vorsitz@@": 6484,
    "Verkehrs@@": 6485,
    "Sax@@": 6486,
    "Rog@@": 6487,
    "Platten@@": 6488,
    "Mischung": 6489,
    "Kontakt": 6490,
    "Kein": 6491,
    "Kau@@": 6492,
    "Kampagne": 6493,
    "Herkunft": 6494,
    "Geben": 6495,
    "Fri@@": 6496,
    "Flüssig@@": 6497,
    "Flor@@": 6498,
    "Elizabeth": 6499,
    "Ehemann": 6500,
    "Dach": 6501,
    "By@@": 6502,
    "Besucher": 6503,
    "Angeb@@": 6504,
    "ücken": 6505,
    "wich": 6506,
    "wes@@": 6507,
    "wan": 6508,
    "ua": 6509,
    "terer": 6510,
    "sozialen": 6511,
    "q@@": 6512,
    "promin@@": 6513,
    "pper": 6514,
    "pla@@": 6515,
    "pen": 6516,
    "mili@@": 6517,
    "konzentrierte": 6518,
    "klassischen": 6519,
    "keiner": 6520,
    "hergestellt": 6521,
    "gehalten": 6522,
    "filme": 6523,
    "europä@@": 6524,
    "erinnert": 6525,
    "entsprech@@": 6526,
    "enter": 6527,
    "direkte": 6528,
    "darin": 6529,
    "Zwischen": 6530,
    "Yu@@": 6531,
    "Young": 6532,
    "Western": 6533,
    "Wahrheit": 6534,
    "Tig@@": 6535,
    "Tam@@": 6536,
    "Tak@@": 6537,
    "Spitz@@": 6538,
    "Spezial@@": 6539,
    "Schna@@": 6540,
    "Ron@@": 6541,
    "Rel@@": 6542,
    "Pur@@": 6543,
    "Musikvide@@": 6544,
    "Multi@@": 6545,
    "Magazin": 6546,
    "Latein@@": 6547,
    "Karte": 6548,
    "Jemand": 6549,
    "Irland": 6550,
    "Identi@@": 6551,
    "Fris@@": 6552,
    "Bol@@": 6553,
    "Besetzung": 6554,
    "Berichten": 6555,
    "Af@@": 6556,
    "ßer": 6557,
    "zerr@@": 6558,
    "zentrale": 6559,
    "yd": 6560,
    "wick": 6561,
    "wesen": 6562,
    "verlän@@": 6563,
    "uth": 6564,
    "traum": 6565,
    "sey": 6566,
    "sahen": 6567,
    "raten": 6568,
    "orienti@@": 6569,
    "musik": 6570,
    "menschliche": 6571,
    "leuch@@": 6572,
    "laut": 6573,
    "italienischen": 6574,
    "hinterließ": 6575,
    "genaue": 6576,
    "gebro@@": 6577,
    "ftung": 6578,
    "erwies": 6579,
    "erfolgte": 6580,
    "eingeschrän@@": 6581,
    "durchschnit@@": 6582,
    "digkeit": 6583,
    "daraus": 6584,
    "beobachtet": 6585,
    "benutzt": 6586,
    "beliebte": 6587,
    "abger@@": 6588,
    "Zell@@": 6589,
    "Zauber@@": 6590,
    "Wü@@": 6591,
    "Wetter@@": 6592,
    "Tour": 6593,
    "Straf@@": 6594,
    "Stie@@": 6595,
    "Sobald": 6596,
    "Senator": 6597,
    "Sam": 6598,
    "Produktions@@": 6599,
    "Partner": 6600,
    "Mittel": 6601,
    "Leicht@@": 6602,
    "Ken@@": 6603,
    "Italien": 6604,
    "Integr@@": 6605,
    "Hä@@": 6606,
    "Grundschule": 6607,
    "Generation": 6608,
    "Geburt": 6609,
    "Gebur@@": 6610,
    "Frieden": 6611,
    "Cy@@": 6612,
    "Bill@@": 6613,
    "zun@@": 6614,
    "vorsichtig": 6615,
    "schwör@@": 6616,
    "russischen": 6617,
    "phen": 6618,
    "ok": 6619,
    "nehmer": 6620,
    "mmet@@": 6621,
    "kungen": 6622,
    "kung": 6623,
    "indi@@": 6624,
    "hau@@": 6625,
    "genannte": 6626,
    "gegangen": 6627,
    "etische": 6628,
    "essi@@": 6629,
    "erwachsen@@": 6630,
    "erungs@@": 6631,
    "bun@@": 6632,
    "bewe@@": 6633,
    "amerikan@@": 6634,
    "Vul@@": 6635,
    "Tatsächlich": 6636,
    "Snow@@": 6637,
    "Rho@@": 6638,
    "Nehmen": 6639,
    "Mos@@": 6640,
    "Mobil@@": 6641,
    "Leucht@@": 6642,
    "Flüsse": 6643,
    "Erei@@": 6644,
    "Blätter": 6645,
    "Block@@": 6646,
    "Aber@@": 6647,
    "ährung": 6648,
    "Änderung": 6649,
    "zukün@@": 6650,
    "zess@@": 6651,
    "vorüber@@": 6652,
    "uther@@": 6653,
    "system": 6654,
    "sowjet@@": 6655,
    "schä@@": 6656,
    "schott@@": 6657,
    "riesi@@": 6658,
    "position": 6659,
    "ographie": 6660,
    "musikal@@": 6661,
    "maßen": 6662,
    "litt": 6663,
    "ktr@@": 6664,
    "kore@@": 6665,
    "klassische": 6666,
    "jahr": 6667,
    "ium": 6668,
    "istan": 6669,
    "iss": 6670,
    "iko": 6671,
    "ical": 6672,
    "helfen": 6673,
    "gefäl@@": 6674,
    "fir@@": 6675,
    "farben": 6676,
    "eum": 6677,
    "erlei@@": 6678,
    "erfordert": 6679,
    "elli@@": 6680,
    "bessere": 6681,
    "beliebter": 6682,
    "afrikan@@": 6683,
    "Wik@@": 6684,
    "Vieh@@": 6685,
    "Var@@": 6686,
    "Untersuch@@": 6687,
    "Trotzdem": 6688,
    "Statue": 6689,
    "Spra@@": 6690,
    "Past@@": 6691,
    "Nick@@": 6692,
    "Möglichkeit": 6693,
    "Kei@@": 6694,
    "Independent": 6695,
    "Führung": 6696,
    "Fäh@@": 6697,
    "Fast": 6698,
    "Eli@@": 6699,
    "Elektro@@": 6700,
    "Dorfes": 6701,
    "De": 6702,
    "Dave": 6703,
    "Dampf@@": 6704,
    "Bek@@": 6705,
    "Albert": 6706,
    "ütze": 6707,
    "Öster@@": 6708,
    "züglich": 6709,
    "zeugen": 6710,
    "zem": 6711,
    "yne": 6712,
    "verab@@": 6713,
    "unterscheiden": 6714,
    "unabhängigen": 6715,
    "traditionell": 6716,
    "tage": 6717,
    "standen": 6718,
    "staat@@": 6719,
    "siden@@": 6720,
    "schwere": 6721,
    "schreiben": 6722,
    "räger": 6723,
    "produktion": 6724,
    "menten": 6725,
    "kleineren": 6726,
    "herausra@@": 6727,
    "halbe": 6728,
    "gestern": 6729,
    "gemischte": 6730,
    "gelt": 6731,
    "fürwor@@": 6732,
    "fällig": 6733,
    "ftig": 6734,
    "erungen": 6735,
    "erheblich": 6736,
    "drau@@": 6737,
    "cer": 6738,
    "brauchen": 6739,
    "Zuvor": 6740,
    "Vit@@": 6741,
    "Unterschiede": 6742,
    "Schokol@@": 6743,
    "Schatten": 6744,
    "Orten": 6745,
    "Oberteil": 6746,
    "Minder@@": 6747,
    "Leitung": 6748,
    "Leit@@": 6749,
    "Isa@@": 6750,
    "Immobili@@": 6751,
    "Gär@@": 6752,
    "Gründungs@@": 6753,
    "Gegner": 6754,
    "Frem@@": 6755,
    "Flag@@": 6756,
    "Eisenbahn": 6757,
    "Definition": 6758,
    "Dal@@": 6759,
    "Clubs": 6760,
    "Bö@@": 6761,
    "Bahn": 6762,
    "weiten": 6763,
    "ura": 6764,
    "trugen": 6765,
    "taus@@": 6766,
    "sions@@": 6767,
    "richtigen": 6768,
    "plätze": 6769,
    "lös@@": 6770,
    "ländlichen": 6771,
    "kraft": 6772,
    "kanad@@": 6773,
    "hilft": 6774,
    "hers": 6775,
    "gebau@@": 6776,
    "fur@@": 6777,
    "fotograf@@": 6778,
    "esten": 6779,
    "eli@@": 6780,
    "elf": 6781,
    "bran@@": 6782,
    "berück@@": 6783,
    "basierte": 6784,
    "artige": 6785,
    "alisierung": 6786,
    "Wy@@": 6787,
    "Veget@@": 6788,
    "Töchter": 6789,
    "Tests": 6790,
    "Shows": 6791,
    "Rang": 6792,
    "Platt@@": 6793,
    "Phän@@": 6794,
    "Philipp@@": 6795,
    "Mör@@": 6796,
    "My": 6797,
    "Lich@@": 6798,
    "Leiden@@": 6799,
    "Küh@@": 6800,
    "Kreu@@": 6801,
    "Kontin@@": 6802,
    "Kindheit": 6803,
    "Jedoch": 6804,
    "Inse@@": 6805,
    "Händen": 6806,
    "Gewinner": 6807,
    "Gelehr@@": 6808,
    "Ful@@": 6809,
    "Erwachsene": 6810,
    "Dy@@": 6811,
    "Code": 6812,
    "Bäume": 6813,
    "Boule@@": 6814,
    "Berat@@": 6815,
    "ähnelt": 6816,
    "verbindet": 6817,
    "uen": 6818,
    "städtischen": 6819,
    "strö@@": 6820,
    "sozial@@": 6821,
    "rise": 6822,
    "rei": 6823,
    "protest@@": 6824,
    "pin@@": 6825,
    "otyp@@": 6826,
    "orie": 6827,
    "mäßige": 6828,
    "mittleren": 6829,
    "lemen@@": 6830,
    "lehnt": 6831,
    "krieg": 6832,
    "kan": 6833,
    "iser@@": 6834,
    "ike": 6835,
    "gänger": 6836,
    "grü@@": 6837,
    "griech@@": 6838,
    "fter": 6839,
    "frühe@@": 6840,
    "frucht@@": 6841,
    "folgen": 6842,
    "fizierte": 6843,
    "etzung": 6844,
    "entsprechend": 6845,
    "bst": 6846,
    "blät@@": 6847,
    "Wand": 6848,
    "Victoria": 6849,
    "Verschiedene": 6850,
    "Urein@@": 6851,
    "Trupp@@": 6852,
    "Transport": 6853,
    "Sympt@@": 6854,
    "Symbol@@": 6855,
    "Studio": 6856,
    "Squ@@": 6857,
    "Sport": 6858,
    "Situ@@": 6859,
    "Rhyth@@": 6860,
    "Premi@@": 6861,
    "Nachricht": 6862,
    "Matthe@@": 6863,
    "Kabin@@": 6864,
    "Innenstadt": 6865,
    "Hat@@": 6866,
    "God@@": 6867,
    "Gesamt@@": 6868,
    "Fund@@": 6869,
    "Französisch": 6870,
    "Format": 6871,
    "Expre@@": 6872,
    "Europä@@": 6873,
    "Caf@@": 6874,
    "Bürgersteig": 6875,
    "Autobahn": 6876,
    "Auftritte": 6877,
    "Alli@@": 6878,
    "Abendessen": 6879,
    "örtliche": 6880,
    "ätten": 6881,
    "ziger": 6882,
    "zahlen": 6883,
    "verwaltung": 6884,
    "ulation": 6885,
    "täglich": 6886,
    "stungs@@": 6887,
    "spezif@@": 6888,
    "soli@@": 6889,
    "rot": 6890,
    "rische": 6891,
    "posiert": 6892,
    "orthodo@@": 6893,
    "massi@@": 6894,
    "liest": 6895,
    "landes@@": 6896,
    "lab@@": 6897,
    "kretär": 6898,
    "krat@@": 6899,
    "häufiger": 6900,
    "ganzes": 6901,
    "erter": 6902,
    "einziges": 6903,
    "chtes": 6904,
    "bew@@": 6905,
    "betrieben": 6906,
    "belie@@": 6907,
    "begrün@@": 6908,
    "aker": 6909,
    "Zeitungen": 6910,
    "Wilson": 6911,
    "Veränder@@": 6912,
    "Toron@@": 6913,
    "Tha@@": 6914,
    "Streitkräfte": 6915,
    "Stoff@@": 6916,
    "Schlä@@": 6917,
    "Schle@@": 6918,
    "Satelli@@": 6919,
    "S.": 6920,
    "Ry@@": 6921,
    "Programmier@@": 6922,
    "Posi@@": 6923,
    "Pfund": 6924,
    "Panz@@": 6925,
    "Ohio": 6926,
    "Niederlan@@": 6927,
    "Merk@@": 6928,
    "Label": 6929,
    "Kreis": 6930,
    "Kab@@": 6931,
    "Graf@@": 6932,
    "Gerü@@": 6933,
    "Exe@@": 6934,
    "Bischof": 6935,
    "ändern": 6936,
    "zit@@": 6937,
    "zeichneten": 6938,
    "wohlha@@": 6939,
    "weis": 6940,
    "verfahren": 6941,
    "utzt": 6942,
    "urs": 6943,
    "up": 6944,
    "trot@@": 6945,
    "sy@@": 6946,
    "suchte": 6947,
    "stätte": 6948,
    "strat@@": 6949,
    "reiste": 6950,
    "punkte": 6951,
    "programm": 6952,
    "port": 6953,
    "ower": 6954,
    "nungen": 6955,
    "mak@@": 6956,
    "kämpfen": 6957,
    "industrie": 6958,
    "hundert@@": 6959,
    "gemäß@@": 6960,
    "erklärt": 6961,
    "dramat@@": 6962,
    "disku@@": 6963,
    "brille": 6964,
    "blüh@@": 6965,
    "bares": 6966,
    "able": 6967,
    "Wie@@": 6968,
    "Waffe": 6969,
    "Ven@@": 6970,
    "Turnier": 6971,
    "Top": 6972,
    "Tick@@": 6973,
    "Soc@@": 6974,
    "Shorts": 6975,
    "Schlu@@": 6976,
    "Pier@@": 6977,
    "Oxford": 6978,
    "Mensch": 6979,
    "Medikam@@": 6980,
    "Mars@@": 6981,
    "Kamp@@": 6982,
    "Kalk@@": 6983,
    "Howard": 6984,
    "Geschwi@@": 6985,
    "Geschen@@": 6986,
    "Gefühl": 6987,
    "Gab@@": 6988,
    "Forts@@": 6989,
    "Etwa": 6990,
    "Erfin@@": 6991,
    "Common@@": 6992,
    "Brian": 6993,
    "überprü@@": 6994,
    "äuß@@": 6995,
    "trotz": 6996,
    "stin": 6997,
    "stellungs@@": 6998,
    "spanischen": 6999,
    "schwemm@@": 7000,
    "rasch": 7001,
    "pp": 7002,
    "phil@@": 7003,
    "orangefarbenen": 7004,
    "ora": 7005,
    "manchen": 7006,
    "lichsten": 7007,
    "legung": 7008,
    "klo@@": 7009,
    "igste": 7010,
    "gewe@@": 7011,
    "gesamm@@": 7012,
    "gelegt": 7013,
    "gegenseitig": 7014,
    "fuß@@": 7015,
    "funktioniert": 7016,
    "fragen": 7017,
    "eo": 7018,
    "enes": 7019,
    "bemerkenswer@@": 7020,
    "beliebt": 7021,
    "bekannter": 7022,
    "atische": 7023,
    "ates": 7024,
    "ani": 7025,
    "Ziele": 7026,
    "Wohltätigkeits@@": 7027,
    "Wohl@@": 7028,
    "Wissenschaftler": 7029,
    "Vok@@": 7030,
    "Variante": 7031,
    "Typ": 7032,
    "Toronto": 7033,
    "Tee": 7034,
    "Sul@@": 7035,
    "Sche@@": 7036,
    "Rechte": 7037,
    "Rebel@@": 7038,
    "Premierminister": 7039,
    "Orte": 7040,
    "Med@@": 7041,
    "Liv@@": 7042,
    "Law@@": 7043,
    "Kas@@": 7044,
    "Jenn@@": 7045,
    "Je": 7046,
    "Grab": 7047,
    "Forest": 7048,
    "Flügel": 7049,
    "Dörfer": 7050,
    "Domin@@": 7051,
    "Deta@@": 7052,
    "Behörden": 7053,
    "Behaup@@": 7054,
    "April": 7055,
    "weißem": 7056,
    "weigerte": 7057,
    "verursacht": 7058,
    "text": 7059,
    "teres": 7060,
    "spezifische": 7061,
    "sh": 7062,
    "schlu@@": 7063,
    "sang": 7064,
    "ruhig": 7065,
    "ren": 7066,
    "omie": 7067,
    "medizinische": 7068,
    "legten": 7069,
    "jüngste": 7070,
    "irischen": 7071,
    "illeg@@": 7072,
    "illa": 7073,
    "iertes": 7074,
    "ichtete": 7075,
    "hum@@": 7076,
    "gewannen": 7077,
    "geschätz@@": 7078,
    "geschäft": 7079,
    "gemeinsame": 7080,
    "frem@@": 7081,
    "erfol@@": 7082,
    "endlich": 7083,
    "burn": 7084,
    "back": 7085,
    "assten": 7086,
    "ampe": 7087,
    "You": 7088,
    "Widerstand": 7089,
    "Veter@@": 7090,
    "Verteidigung": 7091,
    "Verkehr": 7092,
    "Varianten": 7093,
    "Urhe@@": 7094,
    "Unterricht": 7095,
    "Teenager": 7096,
    "Sym@@": 7097,
    "Strö@@": 7098,
    "Sla@@": 7099,
    "Schloss": 7100,
    "Schlei@@": 7101,
    "Samuel": 7102,
    "Rh@@": 7103,
    "Nik@@": 7104,
    "Mannschaften": 7105,
    "Londoner": 7106,
    "Leon@@": 7107,
    "Kel@@": 7108,
    "Irgend@@": 7109,
    "Illustr@@": 7110,
    "Herausgeber": 7111,
    "Fleisch": 7112,
    "Flam@@": 7113,
    "Finn@@": 7114,
    "Crick@@": 7115,
    "Büros": 7116,
    "Bundesstaat@@": 7117,
    "Besuch": 7118,
    "Ausnahme": 7119,
    "Anhän@@": 7120,
    "wöchent@@": 7121,
    "wort": 7122,
    "wirt@@": 7123,
    "weich@@": 7124,
    "titel": 7125,
    "tausend": 7126,
    "tain": 7127,
    "spu@@": 7128,
    "solcher": 7129,
    "sky": 7130,
    "ski": 7131,
    "sis": 7132,
    "singt": 7133,
    "schwan@@": 7134,
    "ron": 7135,
    "orts": 7136,
    "ool": 7137,
    "nachts": 7138,
    "musikalische": 7139,
    "ieller": 7140,
    "hall": 7141,
    "gewonnen": 7142,
    "dynam@@": 7143,
    "com": 7144,
    "benötigen": 7145,
    "barer": 7146,
    "Zie@@": 7147,
    "War": 7148,
    "Spen@@": 7149,
    "Spaß": 7150,
    "Sonntag": 7151,
    "Schriften": 7152,
    "Schrei@@": 7153,
    "Restaurants": 7154,
    "Papier": 7155,
    "Normalerweise": 7156,
    "Nachfol@@": 7157,
    "Mord": 7158,
    "Loch": 7159,
    "Liver@@": 7160,
    "Leistungen": 7161,
    "Kandi@@": 7162,
    "Juni": 7163,
    "Initi@@": 7164,
    "Hypothe@@": 7165,
    "Greg@@": 7166,
    "Golf": 7167,
    "Dollar": 7168,
    "Ble@@": 7169,
    "Bevölkerungs@@": 7170,
    "Ank@@": 7171,
    "wu@@": 7172,
    "wil@@": 7173,
    "vermut@@": 7174,
    "umb@@": 7175,
    "sts": 7176,
    "staatlichen": 7177,
    "sorgt": 7178,
    "ris": 7179,
    "pul@@": 7180,
    "phys@@": 7181,
    "oti@@": 7182,
    "opro@@": 7183,
    "offenen": 7184,
    "mouth": 7185,
    "militärische": 7186,
    "komme": 7187,
    "ischsprach@@": 7188,
    "ingham": 7189,
    "heißen": 7190,
    "fertig": 7191,
    "entschieden": 7192,
    "eingesch@@": 7193,
    "dition": 7194,
    "deln": 7195,
    "bour@@": 7196,
    "bens@@": 7197,
    "behandelt": 7198,
    "beginnen": 7199,
    "Zuhause": 7200,
    "Wesentlichen": 7201,
    "Verd@@": 7202,
    "Unabhäng@@": 7203,
    "Thor@@": 7204,
    "Sydney": 7205,
    "Rücken": 7206,
    "Ruhe@@": 7207,
    "Ray@@": 7208,
    "Pitts@@": 7209,
    "Param@@": 7210,
    "Olympischen": 7211,
    "Konfer@@": 7212,
    "Institute": 7213,
    "Industrie": 7214,
    "Handlung": 7215,
    "Gewin@@": 7216,
    "Gefan@@": 7217,
    "First": 7218,
    "Ero@@": 7219,
    "Eigentümer": 7220,
    "Doktor@@": 7221,
    "Bemühungen": 7222,
    "Bag@@": 7223,
    "Bachel@@": 7224,
    "Association": 7225,
    "ürzte": 7226,
    "üm@@": 7227,
    "Öff@@": 7228,
    "wirkt": 7229,
    "wettbewer@@": 7230,
    "welt": 7231,
    "soziale": 7232,
    "silien": 7233,
    "schickte": 7234,
    "ord": 7235,
    "neter": 7236,
    "maschin@@": 7237,
    "katholische": 7238,
    "industr@@": 7239,
    "ily": 7240,
    "iers": 7241,
    "ica": 7242,
    "häng@@": 7243,
    "gericht": 7244,
    "gebe": 7245,
    "existiert": 7246,
    "erlitt": 7247,
    "einzelne": 7248,
    "bezeichnete": 7249,
    "besuchen": 7250,
    "bedient": 7251,
    "austral@@": 7252,
    "Ziegel@@": 7253,
    "Wissen@@": 7254,
    "Wahrschein@@": 7255,
    "Verhäl@@": 7256,
    "Trag@@": 7257,
    "Stamm": 7258,
    "Skulpt@@": 7259,
    "Rezen@@": 7260,
    "Rein@@": 7261,
    "Regeln": 7262,
    "Nordosten": 7263,
    "Netzwerk": 7264,
    "Mathematik": 7265,
    "Materialien": 7266,
    "Kok@@": 7267,
    "Is": 7268,
    "Innov@@": 7269,
    "Große": 7270,
    "Gipfel": 7271,
    "Gedichte": 7272,
    "Ford": 7273,
    "Finger": 7274,
    "Entwicklungs@@": 7275,
    "Einführung": 7276,
    "Dör@@": 7277,
    "Dr@@": 7278,
    "Carr@@": 7279,
    "Bos@@": 7280,
    "Bord": 7281,
    "Beru@@": 7282,
    "Aven@@": 7283,
    "wollten": 7284,
    "wissenschaften": 7285,
    "wartet": 7286,
    "unterhalten": 7287,
    "strie@@": 7288,
    "stan@@": 7289,
    "sphäre": 7290,
    "sorgfäl@@": 7291,
    "schlechte": 7292,
    "region@@": 7293,
    "passt": 7294,
    "leistungs@@": 7295,
    "j": 7296,
    "gemeins@@": 7297,
    "fröh@@": 7298,
    "flächen": 7299,
    "flex@@": 7300,
    "faszin@@": 7301,
    "farb@@": 7302,
    "erson": 7303,
    "erseits": 7304,
    "ags": 7305,
    "Zweiten": 7306,
    "Zwe@@": 7307,
    "Wär@@": 7308,
    "Wäh@@": 7309,
    "Volk": 7310,
    "Vergn@@": 7311,
    "Verein": 7312,
    "Unfall": 7313,
    "Tausende": 7314,
    "Stephen": 7315,
    "Spir@@": 7316,
    "Schwerpunkt": 7317,
    "Piz@@": 7318,
    "Passag@@": 7319,
    "Olymp@@": 7320,
    "November": 7321,
    "Manchester": 7322,
    "Lande@@": 7323,
    "Kurse": 7324,
    "Kongress": 7325,
    "Kommission": 7326,
    "Kathedrale": 7327,
    "Grafik@@": 7328,
    "Fälle": 7329,
    "Freiwilli@@": 7330,
    "Francisco": 7331,
    "Flagge": 7332,
    "Erweiterung": 7333,
    "Episoden": 7334,
    "Einschrän@@": 7335,
    "Dän@@": 7336,
    "Daniel": 7337,
    "Cowbo@@": 7338,
    "Beweise": 7339,
    "Arzt": 7340,
    "Are@@": 7341,
    "Arab@@": 7342,
    "Amer@@": 7343,
    "äuch@@": 7344,
    "wechselte": 7345,
    "wasser": 7346,
    "terie": 7347,
    "stischen": 7348,
    "spät": 7349,
    "somit": 7350,
    "romant@@": 7351,
    "regionalen": 7352,
    "pä@@": 7353,
    "plötzlich": 7354,
    "ook": 7355,
    "messer": 7356,
    "mehrmals": 7357,
    "mehrerer": 7358,
    "lebende": 7359,
    "küste": 7360,
    "konkurr@@": 7361,
    "jewei@@": 7362,
    "iv": 7363,
    "grauen": 7364,
    "gigen": 7365,
    "gewählt": 7366,
    "gestrei@@": 7367,
    "gekenn@@": 7368,
    "entdeckt": 7369,
    "einfachen": 7370,
    "dunk@@": 7371,
    "drückt": 7372,
    "diver@@": 7373,
    "chts@@": 7374,
    "blauem": 7375,
    "blau": 7376,
    "behielt": 7377,
    "beeinträch@@": 7378,
    "basis": 7379,
    "ba": 7380,
    "ason": 7381,
    "angrenz@@": 7382,
    "adi@@": 7383,
    "ac": 7384,
    "Zo@@": 7385,
    "Winn@@": 7386,
    "Wechsel@@": 7387,
    "Wasserst@@": 7388,
    "Wales": 7389,
    "Vorschlag": 7390,
    "Vin@@": 7391,
    "Verlust": 7392,
    "Symbol": 7393,
    "Stadtrat": 7394,
    "Sechs": 7395,
    "Rom": 7396,
    "Phase": 7397,
    "Penn@@": 7398,
    "Möchten": 7399,
    "Kub@@": 7400,
    "Gur@@": 7401,
    "Gru@@": 7402,
    "Gespräch": 7403,
    "Für@@": 7404,
    "Fox": 7405,
    "Fei@@": 7406,
    "Fabri@@": 7407,
    "Chron@@": 7408,
    "Ankunft": 7409,
    "Algorith@@": 7410,
    "özese": 7411,
    "wissenschaftlichen": 7412,
    "wiederholt": 7413,
    "weibliche": 7414,
    "vers": 7415,
    "utzte": 7416,
    "trainer": 7417,
    "ssystem": 7418,
    "sack": 7419,
    "rou@@": 7420,
    "religiösen": 7421,
    "rein": 7422,
    "quar@@": 7423,
    "priv@@": 7424,
    "prakt@@": 7425,
    "nissen": 7426,
    "nennt": 7427,
    "mögliche": 7428,
    "klar": 7429,
    "inten@@": 7430,
    "ills": 7431,
    "handlungen": 7432,
    "gramme": 7433,
    "gon": 7434,
    "glücklich": 7435,
    "genehmi@@": 7436,
    "gefer@@": 7437,
    "fühlt": 7438,
    "fas@@": 7439,
    "exter@@": 7440,
    "dokum@@": 7441,
    "cro@@": 7442,
    "col@@": 7443,
    "chent@@": 7444,
    "brä@@": 7445,
    "blaue": 7446,
    "berühmt": 7447,
    "anwalt": 7448,
    "Zul@@": 7449,
    "Ye@@": 7450,
    "Walter": 7451,
    "Tol@@": 7452,
    "Tin@@": 7453,
    "Schnit@@": 7454,
    "Radios@@": 7455,
    "Prinz": 7456,
    "Post": 7457,
    "Pause": 7458,
    "Muster": 7459,
    "Love": 7460,
    "Len@@": 7461,
    "Jugend": 7462,
    "Johnny": 7463,
    "Großen": 7464,
    "Großbritann@@": 7465,
    "Geschwindigkeit": 7466,
    "Fotos": 7467,
    "Erfahrungen": 7468,
    "Entde@@": 7469,
    "Daraufhin": 7470,
    "Charl@@": 7471,
    "Berk@@": 7472,
    "Außer@@": 7473,
    "ünst@@": 7474,
    "wirtschaftliche": 7475,
    "undenen": 7476,
    "tt": 7477,
    "tnisse": 7478,
    "startete": 7479,
    "spez@@": 7480,
    "sende": 7481,
    "schung": 7482,
    "rele@@": 7483,
    "onal": 7484,
    "nächstgelegenen": 7485,
    "monat@@": 7486,
    "mittelalter@@": 7487,
    "ktur": 7488,
    "kins": 7489,
    "gehol@@": 7490,
    "geg@@": 7491,
    "fünfzehn": 7492,
    "fakt@@": 7493,
    "exper@@": 7494,
    "etab@@": 7495,
    "erium": 7496,
    "dus": 7497,
    "char@@": 7498,
    "brauchte": 7499,
    "blie@@": 7500,
    "artigen": 7501,
    "anna": 7502,
    "anhand": 7503,
    "alisierte": 7504,
    "akter@@": 7505,
    "ahn": 7506,
    "absolut": 7507,
    "Wettervorhersage": 7508,
    "Völ@@": 7509,
    "Vogel": 7510,
    "Veränderungen": 7511,
    "Tap@@": 7512,
    "Stimmen": 7513,
    "Schalt@@": 7514,
    "Raub@@": 7515,
    "Pennsylvania": 7516,
    "Oze@@": 7517,
    "Opposi@@": 7518,
    "Neuseeland": 7519,
    "Musli@@": 7520,
    "Mrs.": 7521,
    "Moh@@": 7522,
    "Linien": 7523,
    "Kult@@": 7524,
    "Institut": 7525,
    "Inf@@": 7526,
    "Historiker": 7527,
    "Hig@@": 7528,
    "Haaren": 7529,
    "Good@@": 7530,
    "Gesang": 7531,
    "Fahrzeug": 7532,
    "Fahrt": 7533,
    "Ereignis": 7534,
    "Chap@@": 7535,
    "Cambridge": 7536,
    "Bereiche": 7537,
    "Ben": 7538,
    "Beitrag": 7539,
    "Autom@@": 7540,
    "Auswahl": 7541,
    "Aufzeichnungen": 7542,
    "Auff@@": 7543,
    "Andy": 7544,
    "Adre@@": 7545,
    "üss@@": 7546,
    "zwanz@@": 7547,
    "wahlen": 7548,
    "virtu@@": 7549,
    "tätig": 7550,
    "tisch": 7551,
    "tagen": 7552,
    "symbol@@": 7553,
    "spon@@": 7554,
    "side": 7555,
    "schweren": 7556,
    "rennen": 7557,
    "osau@@": 7558,
    "offene": 7559,
    "nützlich": 7560,
    "nami@@": 7561,
    "latz": 7562,
    "ktro@@": 7563,
    "kontinuier@@": 7564,
    "iso@@": 7565,
    "gewöhnlichen": 7566,
    "ery": 7567,
    "eman": 7568,
    "eiten": 7569,
    "einfluss@@": 7570,
    "definiert": 7571,
    "bet": 7572,
    "bern": 7573,
    "beispielsweise": 7574,
    "bauten": 7575,
    "anlagen": 7576,
    "alist": 7577,
    "Vorstand": 7578,
    "Verteidigungs@@": 7579,
    "Staff@@": 7580,
    "Soundtrack": 7581,
    "Rab@@": 7582,
    "Preise": 7583,
    "Motto": 7584,
    "Minnes@@": 7585,
    "Mai": 7586,
    "Kos@@": 7587,
    "Korre@@": 7588,
    "Jazz": 7589,
    "Interpre@@": 7590,
    "Gren@@": 7591,
    "Gewerk@@": 7592,
    "Gewalt": 7593,
    "Gerät": 7594,
    "Freder@@": 7595,
    "Franch@@": 7596,
    "Fantas@@": 7597,
    "Fakt@@": 7598,
    "Fahrzeuge": 7599,
    "Dol@@": 7600,
    "D.": 7601,
    "Brenn@@": 7602,
    "Beschreibung": 7603,
    "Auftr@@": 7604,
    "Architektur": 7605,
    "Ale@@": 7606,
    "zif@@": 7607,
    "version": 7608,
    "trafen": 7609,
    "tle": 7610,
    "teln": 7611,
    "teilten": 7612,
    "tation": 7613,
    "ständige": 7614,
    "steigen": 7615,
    "sent@@": 7616,
    "schottischen": 7617,
    "privaten": 7618,
    "onn@@": 7619,
    "ometer": 7620,
    "nordwestlich": 7621,
    "leger": 7622,
    "kennen": 7623,
    "jüngerer": 7624,
    "jüdische": 7625,
    "isl@@": 7626,
    "instal@@": 7627,
    "grundle@@": 7628,
    "falt": 7629,
    "energ@@": 7630,
    "dimension@@": 7631,
    "damaligen": 7632,
    "bekommen": 7633,
    "akt": 7634,
    "Wissenschaft": 7635,
    "Vinc@@": 7636,
    "Urteil": 7637,
    "Tsch@@": 7638,
    "Strah@@": 7639,
    "Sterne": 7640,
    "Stellen": 7641,
    "Sprecher": 7642,
    "Schwierigkeiten": 7643,
    "Schmu@@": 7644,
    "Rug@@": 7645,
    "Ruck@@": 7646,
    "Rot": 7647,
    "One": 7648,
    "Mü@@": 7649,
    "Lincoln": 7650,
    "Landschaft": 7651,
    "Jersey": 7652,
    "Gedicht": 7653,
    "Eigentum": 7654,
    "Dist@@": 7655,
    "Canadi@@": 7656,
    "Brei@@": 7657,
    "Beach": 7658,
    "Arena": 7659,
    "Anforder@@": 7660,
    "Alan": 7661,
    "zunehmend": 7662,
    "zip": 7663,
    "zerstört": 7664,
    "wohnern": 7665,
    "wiederum": 7666,
    "wichtig": 7667,
    "weib@@": 7668,
    "wachsen": 7669,
    "unglück@@": 7670,
    "town": 7671,
    "stü@@": 7672,
    "stoffe": 7673,
    "stig": 7674,
    "sthe@@": 7675,
    "spezielle": 7676,
    "speziell": 7677,
    "siehe": 7678,
    "riebene": 7679,
    "restau@@": 7680,
    "ray": 7681,
    "que": 7682,
    "nahezu": 7683,
    "lege": 7684,
    "klasse": 7685,
    "iner": 7686,
    "individu@@": 7687,
    "ille": 7688,
    "igur@@": 7689,
    "ib@@": 7690,
    "höchsten": 7691,
    "gül@@": 7692,
    "gste": 7693,
    "gemeinnütz@@": 7694,
    "geko@@": 7695,
    "fällen": 7696,
    "familie": 7697,
    "etischen": 7698,
    "ermor@@": 7699,
    "ergän@@": 7700,
    "erfolgreiche": 7701,
    "bol@@": 7702,
    "anischer": 7703,
    "amin": 7704,
    "alternative": 7705,
    "Wrest@@": 7706,
    "Wahlkreis": 7707,
    "Vorstands@@": 7708,
    "Tromm@@": 7709,
    "Toil@@": 7710,
    "Sound": 7711,
    "Sonnenunter@@": 7712,
    "Shr@@": 7713,
    "Seg@@": 7714,
    "Seen": 7715,
    "Operationen": 7716,
    "Landkreis": 7717,
    "Kont@@": 7718,
    "Kommunik@@": 7719,
    "Kohlen@@": 7720,
    "Jord@@": 7721,
    "Jahrzehnte": 7722,
    "Inva@@": 7723,
    "Indu@@": 7724,
    "Herzog@@": 7725,
    "Gegenwärtig": 7726,
    "Geburts@@": 7727,
    "Famili@@": 7728,
    "Ever@@": 7729,
    "Erhol@@": 7730,
    "Einw@@": 7731,
    "Dunkel@@": 7732,
    "Davi@@": 7733,
    "Cricket": 7734,
    "Council": 7735,
    "Charaktere": 7736,
    "Carolina": 7737,
    "Bus": 7738,
    "Berufung": 7739,
    "Baseball": 7740,
    "Bands": 7741,
    "äume": 7742,
    "änden": 7743,
    "älter": 7744,
    "wären": 7745,
    "wimmen": 7746,
    "veröffentlichten": 7747,
    "verbreitete": 7748,
    "unserem": 7749,
    "schönen": 7750,
    "schließen": 7751,
    "schlecht": 7752,
    "rug": 7753,
    "plötz@@": 7754,
    "nächstgelegene": 7755,
    "ning": 7756,
    "möglichen": 7757,
    "mund": 7758,
    "mm": 7759,
    "miert": 7760,
    "kus@@": 7761,
    "kurzem": 7762,
    "kru@@": 7763,
    "klein": 7764,
    "kaufte": 7765,
    "house": 7766,
    "greif@@": 7767,
    "glo@@": 7768,
    "gesetzt": 7769,
    "gement": 7770,
    "ffer": 7771,
    "ese": 7772,
    "dasselbe": 7773,
    "cor@@": 7774,
    "chsel": 7775,
    "chinesische": 7776,
    "chens": 7777,
    "bücher": 7778,
    "boden": 7779,
    "bean@@": 7780,
    "atik": 7781,
    "ata": 7782,
    "assozi@@": 7783,
    "akte@@": 7784,
    "Verbrau@@": 7785,
    "Spanien": 7786,
    "Siedlungen": 7787,
    "Schottland": 7788,
    "Schild": 7789,
    "Romane": 7790,
    "Münzen": 7791,
    "Mosk@@": 7792,
    "Mala@@": 7793,
    "Lap@@": 7794,
    "Küche": 7795,
    "Jimm@@": 7796,
    "Jane": 7797,
    "Gord@@": 7798,
    "Gesundheit": 7799,
    "Freundin": 7800,
    "Freude": 7801,
    "Finale": 7802,
    "Fernsehsen@@": 7803,
    "Einzelhande@@": 7804,
    "Court": 7805,
    "Bruce": 7806,
    "Blut": 7807,
    "Analy@@": 7808,
    "Abgeord@@": 7809,
    "öhn@@": 7810,
    "äten": 7811,
    "ßer@@": 7812,
    "zellen": 7813,
    "xen": 7814,
    "wohner": 7815,
    "wesenheit": 7816,
    "vis": 7817,
    "verkün@@": 7818,
    "stärker": 7819,
    "sprang": 7820,
    "rt": 7821,
    "reichte": 7822,
    "regul@@": 7823,
    "norweg@@": 7824,
    "mutter": 7825,
    "mex@@": 7826,
    "lam": 7827,
    "ktoren": 7828,
    "iden": 7829,
    "gutes": 7830,
    "gekommen": 7831,
    "gebäu@@": 7832,
    "fügte": 7833,
    "frikan@@": 7834,
    "französ@@": 7835,
    "fach": 7836,
    "explo@@": 7837,
    "enheit": 7838,
    "cia": 7839,
    "bevölk@@": 7840,
    "besonderen": 7841,
    "beschul@@": 7842,
    "benutzen": 7843,
    "arische": 7844,
    "archite@@": 7845,
    "angs": 7846,
    "Wurzeln": 7847,
    "Wind": 7848,
    "Vertei@@": 7849,
    "Tul@@": 7850,
    "Schicksal": 7851,
    "Regisseur": 7852,
    "Moz@@": 7853,
    "Mik@@": 7854,
    "Merkmale": 7855,
    "Meister": 7856,
    "Manuskrip@@": 7857,
    "Lady": 7858,
    "Inhalt": 7859,
    "Hospit@@": 7860,
    "Hochschule": 7861,
    "Hex@@": 7862,
    "Geist": 7863,
    "Eier": 7864,
    "Donn@@": 7865,
    "Dienste": 7866,
    "Det@@": 7867,
    "Damals": 7868,
    "Cir@@": 7869,
    "Berater": 7870,
    "Ausstellung": 7871,
    "Auft@@": 7872,
    "Anzug": 7873,
    "Analyse": 7874,
    "Airport": 7875,
    "é": 7876,
    "äter": 7877,
    "ächs@@": 7878,
    "vorsitz@@": 7879,
    "vernich@@": 7880,
    "streifen": 7881,
    "späten": 7882,
    "skri@@": 7883,
    "riebenen": 7884,
    "republi@@": 7885,
    "rechts": 7886,
    "rad": 7887,
    "praktisch": 7888,
    "näher": 7889,
    "nah": 7890,
    "lo": 7891,
    "las": 7892,
    "ktiven": 7893,
    "höh@@": 7894,
    "hängen": 7895,
    "grundlegende": 7896,
    "gezeigt": 7897,
    "gewicht": 7898,
    "gentin@@": 7899,
    "eth": 7900,
    "erscheinen": 7901,
    "erhöht": 7902,
    "entwickelten": 7903,
    "entschei@@": 7904,
    "enor@@": 7905,
    "ehem@@": 7906,
    "dadurch": 7907,
    "ces": 7908,
    "breiten": 7909,
    "besonder@@": 7910,
    "assungs@@": 7911,
    "ari": 7912,
    "antwor@@": 7913,
    "aktu@@": 7914,
    "Zellen": 7915,
    "Wachstum": 7916,
    "Wach@@": 7917,
    "Terra@@": 7918,
    "Techniken": 7919,
    "Rettungs@@": 7920,
    "Ral@@": 7921,
    "Pierre": 7922,
    "Phili@@": 7923,
    "Melodie": 7924,
    "Lawrence": 7925,
    "Konferenz": 7926,
    "Juli": 7927,
    "Ihrem": 7928,
    "Heutzutage": 7929,
    "Hamilton": 7930,
    "Gewe@@": 7931,
    "Geburtsort": 7932,
    "Freu@@": 7933,
    "Erinnerung": 7934,
    "Dyna@@": 7935,
    "Donald": 7936,
    "Chir@@": 7937,
    "Bisch@@": 7938,
    "Arn@@": 7939,
    "änge": 7940,
    "ystems": 7941,
    "verschwin@@": 7942,
    "vermutlich": 7943,
    "unterrichtete": 7944,
    "stets": 7945,
    "stechn@@": 7946,
    "staatliche": 7947,
    "sph@@": 7948,
    "schafft": 7949,
    "räume": 7950,
    "physi@@": 7951,
    "pfel": 7952,
    "persönlichen": 7953,
    "persönliche": 7954,
    "ov": 7955,
    "militärischen": 7956,
    "mehrfach": 7957,
    "lösung": 7958,
    "line": 7959,
    "lesen": 7960,
    "kämpfte": 7961,
    "karten": 7962,
    "itionen": 7963,
    "istisch": 7964,
    "immi@@": 7965,
    "igten": 7966,
    "grün": 7967,
    "gerten": 7968,
    "gefil@@": 7969,
    "fabri@@": 7970,
    "erlangte": 7971,
    "entstanden": 7972,
    "ement": 7973,
    "ehrt": 7974,
    "dierte": 7975,
    "arbeiteten": 7976,
    "amm": 7977,
    "amerikanischer": 7978,
    "aktiven": 7979,
    "absolvierte": 7980,
    "Zunächst": 7981,
    "Zir@@": 7982,
    "Zin@@": 7983,
    "Wörter": 7984,
    "Weltkriegs": 7985,
    "Vene@@": 7986,
    "Umständen": 7987,
    "Szenen": 7988,
    "Strateg@@": 7989,
    "Simon": 7990,
    "Republi@@": 7991,
    "Repräsent@@": 7992,
    "Passagiere": 7993,
    "Nun": 7994,
    "Northern": 7995,
    "Nation": 7996,
    "März": 7997,
    "Mes@@": 7998,
    "Magi@@": 7999,
    "Kritiken": 8000,
    "Kleine": 8001,
    "Hinsicht": 8002,
    "Handschu@@": 8003,
    "Golden": 8004,
    "Glasg@@": 8005,
    "Gesetze": 8006,
    "Dokument": 8007,
    "Camp": 8008,
    "Blumen": 8009,
    "Benutzer": 8010,
    "Arkan@@": 8011,
    "Ariz@@": 8012,
    "äle": 8013,
    "wirtschaftlichen": 8014,
    "wirtschaft": 8015,
    "wichtiges": 8016,
    "versuchen": 8017,
    "verfolgte": 8018,
    "stru@@": 8019,
    "set": 8020,
    "scheinend": 8021,
    "quelle": 8022,
    "prot@@": 8023,
    "nördliche": 8024,
    "nett": 8025,
    "negative": 8026,
    "lington": 8027,
    "koh@@": 8028,
    "ji": 8029,
    "iten": 8030,
    "holi@@": 8031,
    "forschung": 8032,
    "erwähnt": 8033,
    "erhe@@": 8034,
    "erfre@@": 8035,
    "dreht": 8036,
    "deutet": 8037,
    "brit@@": 8038,
    "alog": 8039,
    "alem": 8040,
    "Waren": 8041,
    "Urspr@@": 8042,
    "Südosten": 8043,
    "Southern": 8044,
    "Schri@@": 8045,
    "Reich": 8046,
    "Premier@@": 8047,
    "Ple@@": 8048,
    "Pati@@": 8049,
    "Nachbarn": 8050,
    "Medizin": 8051,
    "Major": 8052,
    "Konz@@": 8053,
    "Jungs": 8054,
    "Inneren": 8055,
    "Hauptquartier": 8056,
    "Haare": 8057,
    "Geschmack": 8058,
    "Geschma@@": 8059,
    "Gemü@@": 8060,
    "Gedanken": 8061,
    "Entdeckung": 8062,
    "Clark": 8063,
    "Campbel@@": 8064,
    "Bä@@": 8065,
    "Besitzer": 8066,
    "Berichte": 8067,
    "Auge": 8068,
    "Attra@@": 8069,
    "Antrag": 8070,
    "zeichnung": 8071,
    "xe": 8072,
    "willig": 8073,
    "wachen": 8074,
    "vertrat": 8075,
    "terien": 8076,
    "sorgte": 8077,
    "sichtigt": 8078,
    "schön": 8079,
    "sammlung": 8080,
    "program@@": 8081,
    "ond": 8082,
    "mans": 8083,
    "lätze": 8084,
    "let": 8085,
    "issi@@": 8086,
    "isa": 8087,
    "hang": 8088,
    "gemäß": 8089,
    "falsch": 8090,
    "ea": 8091,
    "ct": 8092,
    "breitung": 8093,
    "brachten": 8094,
    "blickt": 8095,
    "andelt": 8096,
    "aly@@": 8097,
    "akteur": 8098,
    "Zeremonie": 8099,
    "Umfang": 8100,
    "Tournee": 8101,
    "Sängerin": 8102,
    "Spezi@@": 8103,
    "Sinn": 8104,
    "Senat": 8105,
    "Oktober": 8106,
    "Male": 8107,
    "Liz@@": 8108,
    "Lager": 8109,
    "Israel": 8110,
    "Insgesamt": 8111,
    "Hunderte": 8112,
    "Gewicht": 8113,
    "Farm": 8114,
    "Erfindung": 8115,
    "Entfernung": 8116,
    "Dichter": 8117,
    "Cousin": 8118,
    "Commun@@": 8119,
    "Bezieh@@": 8120,
    "Auftrag": 8121,
    "Anderson": 8122,
    "Amerikaner": 8123,
    "Amerika": 8124,
    "Akademie": 8125,
    "äne": 8126,
    "wurf": 8127,
    "sterte": 8128,
    "senden": 8129,
    "schiffe": 8130,
    "lover": 8131,
    "lieren": 8132,
    "lichte": 8133,
    "krö@@": 8134,
    "knapp": 8135,
    "kette": 8136,
    "jekt": 8137,
    "ius": 8138,
    "hoher": 8139,
    "gelern@@": 8140,
    "förmigen": 8141,
    "entspricht": 8142,
    "elben": 8143,
    "dingt": 8144,
    "dene": 8145,
    "deckt": 8146,
    "daten": 8147,
    "can": 8148,
    "bestimmt": 8149,
    "beschrieben": 8150,
    "benötigt": 8151,
    "automatisch": 8152,
    "ahe": 8153,
    "Wes@@": 8154,
    "Ursache": 8155,
    "Turm": 8156,
    "Teilnahme": 8157,
    "Tasche": 8158,
    "Sturm": 8159,
    "Science": 8160,
    "Religion": 8161,
    "Kreuzung": 8162,
    "Jefferson": 8163,
    "Helm": 8164,
    "Haust@@": 8165,
    "Glauben": 8166,
    "Geräte": 8167,
    "Gebrauch": 8168,
    "Drehbuch": 8169,
    "Billy": 8170,
    "Berlin": 8171,
    "Architekten": 8172,
    "Anschluss": 8173,
    "ügen": 8174,
    "züge": 8175,
    "yo": 8176,
    "wächst": 8177,
    "widmete": 8178,
    "versorgung": 8179,
    "tiker": 8180,
    "temp@@": 8181,
    "ständnis": 8182,
    "strafe": 8183,
    "sta": 8184,
    "schüttelte": 8185,
    "schritt": 8186,
    "ppt": 8187,
    "owjet@@": 8188,
    "ita": 8189,
    "ico": 8190,
    "herap@@": 8191,
    "handlung": 8192,
    "geführt": 8193,
    "fess@@": 8194,
    "existieren": 8195,
    "cus": 8196,
    "boarder": 8197,
    "behör@@": 8198,
    "annes": 8199,
    "ager": 8200,
    "Wun@@": 8201,
    "Start": 8202,
    "Sicht": 8203,
    "Schuhe": 8204,
    "Schlagzeuger": 8205,
    "Schar@@": 8206,
    "Sarah": 8207,
    "Sand": 8208,
    "Rob@@": 8209,
    "Reaktionen": 8210,
    "Qualität": 8211,
    "Produzent": 8212,
    "Pflanze": 8213,
    "Ontario": 8214,
    "Oh": 8215,
    "Mountain": 8216,
    "Margaret": 8217,
    "Lokomoti@@": 8218,
    "Job": 8219,
    "Fic@@": 8220,
    "Existenz": 8221,
    "Christopher": 8222,
    "Bucht": 8223,
    "Befehle": 8224,
    "Anerkennung": 8225,
    "Adams": 8226,
    "Abstammung": 8227,
    "ück": 8228,
    "übersetzt": 8229,
    "wirkte": 8230,
    "wies": 8231,
    "wegs": 8232,
    "warten": 8233,
    "unterschei@@": 8234,
    "straßen": 8235,
    "stands@@": 8236,
    "sozi@@": 8237,
    "prüfung": 8238,
    "politan": 8239,
    "phe": 8240,
    "orangefar@@": 8241,
    "oper": 8242,
    "nimm@@": 8243,
    "ness": 8244,
    "ments": 8245,
    "lätz@@": 8246,
    "leidet": 8247,
    "kran@@": 8248,
    "ition": 8249,
    "hr": 8250,
    "gründeten": 8251,
    "gebieten": 8252,
    "erkannte": 8253,
    "entr@@": 8254,
    "eit": 8255,
    "chin@@": 8256,
    "bus": 8257,
    "besiegte": 8258,
    "bemerkte": 8259,
    "bedingungen": 8260,
    "Wochenende": 8261,
    "Weiß": 8262,
    "Weihna@@": 8263,
    "Sachen": 8264,
    "Russland": 8265,
    "Riv@@": 8266,
    "Planeten": 8267,
    "Nutzung": 8268,
    "Moderne": 8269,
    "Miller": 8270,
    "Mexiko": 8271,
    "Merkmal": 8272,
    "Kleinkind": 8273,
    "Kandidat": 8274,
    "Hauptrolle": 8275,
    "Gregson": 8276,
    "Gerichtshof": 8277,
    "Etwas": 8278,
    "Christian": 8279,
    "Bezirke": 8280,
    "Anthony": 8281,
    "Angelegenheiten": 8282,
    "Algorithmus": 8283,
    "überrascht": 8284,
    "Än@@": 8285,
    "uld": 8286,
    "tons": 8287,
    "tikel": 8288,
    "stit@@": 8289,
    "stal@@": 8290,
    "sell": 8291,
    "see": 8292,
    "row": 8293,
    "richter": 8294,
    "rich": 8295,
    "regierung": 8296,
    "racht": 8297,
    "othe@@": 8298,
    "organisation": 8299,
    "mily": 8300,
    "mierung": 8301,
    "kürz@@": 8302,
    "körper": 8303,
    "kirche": 8304,
    "ission": 8305,
    "if@@": 8306,
    "heiß": 8307,
    "gessen": 8308,
    "erzählt": 8309,
    "ells": 8310,
    "einzel@@": 8311,
    "dler": 8312,
    "dat": 8313,
    "bewohner": 8314,
    "beschloss": 8315,
    "ally": 8316,
    "Videos": 8317,
    "Verletzung": 8318,
    "Vereinig@@": 8319,
    "Theorien": 8320,
    "Tennessee": 8321,
    "Schweden": 8322,
    "Produzenten": 8323,
    "Positionen": 8324,
    "Pferde": 8325,
    "Pacific": 8326,
    "Krone": 8327,
    "Haltung": 8328,
    "Gary": 8329,
    "Franklin": 8330,
    "Erklär@@": 8331,
    "Entwurf": 8332,
    "Dorothy": 8333,
    "Deutschen": 8334,
    "Briten": 8335,
    "Bewegungen": 8336,
    "3@@": 8337,
    "ühren": 8338,
    "wählen": 8339,
    "vorbei": 8340,
    "variiert": 8341,
    "variieren": 8342,
    "utze": 8343,
    "urop@@": 8344,
    "trauen": 8345,
    "stattung": 8346,
    "schüt@@": 8347,
    "schauer": 8348,
    "right": 8349,
    "rey": 8350,
    "rest@@": 8351,
    "rate": 8352,
    "ouver@@": 8353,
    "ough": 8354,
    "ols": 8355,
    "litten": 8356,
    "how": 8357,
    "ghts": 8358,
    "gemeinde": 8359,
    "gelö@@": 8360,
    "formation": 8361,
    "eute": 8362,
    "erlei": 8363,
    "elson": 8364,
    "een": 8365,
    "board": 8366,
    "blickte": 8367,
    "ati": 8368,
    "Woo@@": 8369,
    "Werken": 8370,
    "Tim": 8371,
    "Scot@@": 8372,
    "O": 8373,
    "Niederlage": 8374,
    "Michigan": 8375,
    "Lauf": 8376,
    "Kerl": 8377,
    "Kansas": 8378,
    "Herbst": 8379,
    "Hau@@": 8380,
    "Harris": 8381,
    "Gemüse": 8382,
    "Gelegenheit": 8383,
    "Eis": 8384,
    "Einzelheiten": 8385,
    "Doll@@": 8386,
    "Day": 8387,
    "Color@@": 8388,
    "Büchern": 8389,
    "Bach": 8390,
    "öcke": 8391,
    "zählt": 8392,
    "zel": 8393,
    "yle": 8394,
    "unge": 8395,
    "ula": 8396,
    "tauchte": 8397,
    "taucht": 8398,
    "tanzen": 8399,
    "schläft": 8400,
    "sa": 8401,
    "ruf": 8402,
    "riebe": 8403,
    "pft": 8404,
    "persönlich": 8405,
    "oth@@": 8406,
    "ote": 8407,
    "offensichtlich": 8408,
    "od": 8409,
    "möchten": 8410,
    "ismen": 8411,
    "ika": 8412,
    "igte": 8413,
    "ieht": 8414,
    "händler": 8415,
    "herapie": 8416,
    "gerungen": 8417,
    "gentlich": 8418,
    "fungierte": 8419,
    "entrums": 8420,
    "dson": 8421,
    "bauen": 8422,
    "Wein": 8423,
    "Vize@@": 8424,
    "Veröffentlichungen": 8425,
    "Vereinigung": 8426,
    "Teufel": 8427,
    "Strat@@": 8428,
    "Reihenfolge": 8429,
    "Prinzessin": 8430,
    "Phi@@": 8431,
    "Personal": 8432,
    "Orange": 8433,
    "Offiziere": 8434,
    "Milch": 8435,
    "Micha@@": 8436,
    "Maschine": 8437,
    "Intelligenz": 8438,
    "Highway": 8439,
    "Anwesen": 8440,
    "zufrieden": 8441,
    "wass@@": 8442,
    "verrü@@": 8443,
    "tigkeiten": 8444,
    "quenzen": 8445,
    "pra@@": 8446,
    "orten": 8447,
    "nel": 8448,
    "lingen": 8449,
    "lerin": 8450,
    "langer": 8451,
    "kleidung": 8452,
    "heim": 8453,
    "gle": 8454,
    "fikation": 8455,
    "erh@@": 8456,
    "ello": 8457,
    "denke": 8458,
    "ckey": 8459,
    "bewegte": 8460,
    "besucht": 8461,
    "behörde": 8462,
    "bby": 8463,
    "andel": 8464,
    "altet": 8465,
    "Vorstellung": 8466,
    "Verfassung": 8467,
    "Urlau@@": 8468,
    "Tenne@@": 8469,
    "Strukturen": 8470,
    "Stadtzentrum": 8471,
    "Sant@@": 8472,
    "Nationen": 8473,
    "Lizenz": 8474,
    "Kräfte": 8475,
    "Kategorie": 8476,
    "Jesus": 8477,
    "Gussie": 8478,
    "Georgia": 8479,
    "Fabrik": 8480,
    "Element": 8481,
    "Castle": 8482,
    "C": 8483,
    "Burg": 8484,
    "Bevölk@@": 8485,
    "Bett": 8486,
    "Bell": 8487,
    "Beine": 8488,
    "Basketball": 8489,
    "Bart": 8490,
    "Ausland": 8491,
    "Ari@@": 8492,
    "Angriffe": 8493,
    "ösen": 8494,
    "öpfe": 8495,
    "äte": 8496,
    "Öffent@@": 8497,
    "zess": 8498,
    "wechselt": 8499,
    "vertrag": 8500,
    "stigen": 8501,
    "schau": 8502,
    "riss": 8503,
    "richtungen": 8504,
    "positiv": 8505,
    "nennen": 8506,
    "kalt": 8507,
    "hinten": 8508,
    "hing": 8509,
    "gehe": 8510,
    "fühle": 8511,
    "ffizi@@": 8512,
    "dd": 8513,
    "benutzte": 8514,
    "beln": 8515,
    "arme": 8516,
    "Zü@@": 8517,
    "Zentr@@": 8518,
    "Vizepräsiden@@": 8519,
    "Versuch": 8520,
    "Südwesten": 8521,
    "Stern": 8522,
    "Radfahrer": 8523,
    "Polen": 8524,
    "Nort@@": 8525,
    "Nordwesten": 8526,
    "Minute": 8527,
    "Klassen": 8528,
    "Inde@@": 8529,
    "Herzen": 8530,
    "Halbinsel": 8531,
    "Edinburgh": 8532,
    "Connec@@": 8533,
    "Buchstaben": 8534,
    "Aktivität": 8535,
    "Adam": 8536,
    "Abschnitte": 8537,
    "ächter": 8538,
    "würfe": 8539,
    "verbindungen": 8540,
    "verband": 8541,
    "tot": 8542,
    "tei": 8543,
    "starben": 8544,
    "sive": 8545,
    "schrie": 8546,
    "sachen": 8547,
    "pfte": 8548,
    "orn": 8549,
    "nam": 8550,
    "lierte": 8551,
    "liebte": 8552,
    "kräfte": 8553,
    "ischt": 8554,
    "ict@@": 8555,
    "gyp@@": 8556,
    "gerschaft": 8557,
    "finale": 8558,
    "extre@@": 8559,
    "esien": 8560,
    "erzeugt": 8561,
    "derungen": 8562,
    "bliothe@@": 8563,
    "beteili@@": 8564,
    "besiegt": 8565,
    "Zwecke": 8566,
    "Welle": 8567,
    "Wappen": 8568,
    "Systems": 8569,
    "Strom": 8570,
    "Schwestern": 8571,
    "Ruhestand": 8572,
    "Roy@@": 8573,
    "Projekte": 8574,
    "Lesen": 8575,
    "Law": 8576,
    "Laden": 8577,
    "Kommunikation": 8578,
    "Kollegen": 8579,
    "Hauses": 8580,
    "Führer": 8581,
    "Forscher": 8582,
    "Faktoren": 8583,
    "Dokum@@": 8584,
    "Corporation": 8585,
    "Corpor@@": 8586,
    "Centre": 8587,
    "Berge": 8588,
    "Begriffe": 8589,
    "Bach@@": 8590,
    "Arts": 8591,
    "überw@@": 8592,
    "usses": 8593,
    "unterschiedlich": 8594,
    "tent@@": 8595,
    "spaz@@": 8596,
    "schuldig": 8597,
    "reitet": 8598,
    "präsentiert": 8599,
    "nern": 8600,
    "istin": 8601,
    "iler": 8602,
    "hört": 8603,
    "heben": 8604,
    "freundlich": 8605,
    "fangen": 8606,
    "einte": 8607,
    "ction": 8608,
    "bridge": 8609,
    "bend": 8610,
    "anzug": 8611,
    "ament": 8612,
    "Tourismus": 8613,
    "Teen@@": 8614,
    "Tages": 8615,
    "Super": 8616,
    "Streifen": 8617,
    "Skateboard": 8618,
    "Schwarz": 8619,
    "Nachbarschaft": 8620,
    "Mannes": 8621,
    "Lebensmittel": 8622,
    "Jean": 8623,
    "Instrumente": 8624,
    "Hunder@@": 8625,
    "Hoo@@": 8626,
    "Ehem@@": 8627,
    "Dezember": 8628,
    "Denkmal": 8629,
    "Chef": 8630,
    "Blät@@": 8631,
    "yp": 8632,
    "viertel": 8633,
    "verlässt": 8634,
    "uts": 8635,
    "ungsmittel": 8636,
    "ssourcen": 8637,
    "schusses": 8638,
    "ruhi@@": 8639,
    "persön@@": 8640,
    "oo": 8641,
    "olas": 8642,
    "ny": 8643,
    "mitteln": 8644,
    "merkt": 8645,
    "ky": 8646,
    "kord": 8647,
    "karriere": 8648,
    "ief": 8649,
    "höher": 8650,
    "heraus": 8651,
    "gewiesen": 8652,
    "gegründet": 8653,
    "flüsse": 8654,
    "entwicklung": 8655,
    "danke": 8656,
    "chines@@": 8657,
    "burgh": 8658,
    "aga": 8659,
    "Werbung": 8660,
    "Verkehr@@": 8661,
    "Urlaub": 8662,
    "Türk@@": 8663,
    "Rose": 8664,
    "Maßnahmen": 8665,
    "Massachusetts": 8666,
    "Hockey": 8667,
    "Helden": 8668,
    "Details": 8669,
    "Beste": 8670,
    "Anne": 8671,
    "werken": 8672,
    "warst": 8673,
    "unterricht": 8674,
    "ule": 8675,
    "tötet": 8676,
    "pool": 8677,
    "nant": 8678,
    "langt": 8679,
    "lager": 8680,
    "kompl@@": 8681,
    "ital": 8682,
    "illon": 8683,
    "höfe": 8684,
    "entwickeln": 8685,
    "eindeutig": 8686,
    "bedeckt": 8687,
    "bank": 8688,
    "anlage": 8689,
    "anie": 8690,
    "ampen": 8691,
    "achtet": 8692,
    "Wachst@@": 8693,
    "Thompson": 8694,
    "Schools": 8695,
    "Samen": 8696,
    "Republikaner": 8697,
    "Möglichkeiten": 8698,
    "Helene": 8699,
    "Eingang": 8700,
    "Cover": 8701,
    "Bäumen": 8702,
    "Bergen": 8703,
    "übt": 8704,
    "überlebte": 8705,
    "ödie": 8706,
    "ändert": 8707,
    "ziehung": 8708,
    "work": 8709,
    "weigert": 8710,
    "wache": 8711,
    "verantwortlich": 8712,
    "ul": 8713,
    "trover@@": 8714,
    "stimmen": 8715,
    "steigt": 8716,
    "schwierig": 8717,
    "scheiden": 8718,
    "riech@@": 8719,
    "richten": 8720,
    "klus": 8721,
    "grad": 8722,
    "gnis": 8723,
    "gil@@": 8724,
    "getroffen": 8725,
    "gate": 8726,
    "fungen": 8727,
    "früher@@": 8728,
    "floh": 8729,
    "erwäh@@": 8730,
    "dorthin": 8731,
    "bricht": 8732,
    "bewegung": 8733,
    "beinhalten": 8734,
    "antwortung": 8735,
    "X": 8736,
    "Teu@@": 8737,
    "Sorgen": 8738,
    "Regen": 8739,
    "Presse": 8740,
    "Posten": 8741,
    "Philadelphia": 8742,
    "Nordamerika": 8743,
    "Lincol@@": 8744,
    "Klavier": 8745,
    "Interessen": 8746,
    "Illinois": 8747,
    "Gefahr": 8748,
    "Field": 8749,
    "Effekt": 8750,
    "Bridge": 8751,
    "Bier": 8752,
    "Behand@@": 8753,
    "Ausrüstung": 8754,
    "Anlage": 8755,
    "zeichnen": 8756,
    "terten": 8757,
    "stehend": 8758,
    "seien": 8759,
    "sehe": 8760,
    "schlagen": 8761,
    "sache": 8762,
    "reichs": 8763,
    "ont": 8764,
    "lieben": 8765,
    "kturen": 8766,
    "hilf@@": 8767,
    "halle": 8768,
    "flüge": 8769,
    "fiziert": 8770,
    "fa": 8771,
    "eur": 8772,
    "ersetzt": 8773,
    "entsteht": 8774,
    "dt": 8775,
    "derer": 8776,
    "ausgeführt": 8777,
    "arch": 8778,
    "angesehen": 8779,
    "alb@@": 8780,
    "akte": 8781,
    "Werte": 8782,
    "Vereinbarung": 8783,
    "Unabhängigkeit": 8784,
    "Tier": 8785,
    "Tanz": 8786,
    "Stars": 8787,
    "Sound@@": 8788,
    "Senior": 8789,
    "Naz@@": 8790,
    "Gesund@@": 8791,
    "Gebäuden": 8792,
    "Erweiter@@": 8793,
    "Bürger": 8794,
    "Angelegenheit": 8795,
    "ährt": 8796,
    "zentren": 8797,
    "waffe": 8798,
    "verstehe": 8799,
    "unkt": 8800,
    "una": 8801,
    "sum": 8802,
    "stone": 8803,
    "sorgen": 8804,
    "saison": 8805,
    "rig": 8806,
    "reden": 8807,
    "pflanzen": 8808,
    "nör@@": 8809,
    "möglichkeiten": 8810,
    "maschine": 8811,
    "listen": 8812,
    "links": 8813,
    "horn": 8814,
    "gerin": 8815,
    "geld": 8816,
    "garten": 8817,
    "ez": 8818,
    "eutzutage": 8819,
    "euch": 8820,
    "erneu@@": 8821,
    "chtest": 8822,
    "braun": 8823,
    "besitzer": 8824,
    "beeinflusst": 8825,
    "att": 8826,
    "Town": 8827,
    "Streit@@": 8828,
    "Stand": 8829,
    "Railway": 8830,
    "Plattform": 8831,
    "Physik": 8832,
    "Ozean": 8833,
    "Meisterschaft": 8834,
    "Line": 8835,
    "Komponenten": 8836,
    "Isra@@": 8837,
    "Instrument": 8838,
    "Hou@@": 8839,
    "Hollywood": 8840,
    "Hit": 8841,
    "Hinweis": 8842,
    "Handy": 8843,
    "Festivals": 8844,
    "Enter@@": 8845,
    "Ehefrau": 8846,
    "Ebenen": 8847,
    "weißt": 8848,
    "stuhl": 8849,
    "stisch": 8850,
    "reiben": 8851,
    "raft": 8852,
    "oto": 8853,
    "ohen": 8854,
    "nieman@@": 8855,
    "nd": 8856,
    "krank": 8857,
    "kathol@@": 8858,
    "int": 8859,
    "getragen": 8860,
    "ella": 8861,
    "dio": 8862,
    "dagegen": 8863,
    "aka": 8864,
    "Wood": 8865,
    "Village": 8866,
    "Verletzungen": 8867,
    "Standard": 8868,
    "Morris": 8869,
    "Moore": 8870,
    "Melbourne": 8871,
    "Logo": 8872,
    "Festiv@@": 8873,
    "Einkaufszentrum": 8874,
    "Dynastie": 8875,
    "Dienstleistungen": 8876,
    "Charlie": 8877,
    "Area": 8878,
    "Arbeitgeber": 8879,
    "Ann": 8880,
    "Academ@@": 8881,
    "—": 8882,
    "wohnen": 8883,
    "wenden": 8884,
    "verwaltet": 8885,
    "utz": 8886,
    "ud": 8887,
    "stron@@": 8888,
    "stheorie": 8889,
    "sterben": 8890,
    "siedlung": 8891,
    "schutz": 8892,
    "schrän@@": 8893,
    "ros": 8894,
    "organisiert": 8895,
    "ologien": 8896,
    "ohlen": 8897,
    "mord": 8898,
    "leute": 8899,
    "iens": 8900,
    "ickte": 8901,
    "here": 8902,
    "geschlagen": 8903,
    "gangen": 8904,
    "erschienen": 8905,
    "entum": 8906,
    "ema": 8907,
    "elbe": 8908,
    "borough": 8909,
    "baut": 8910,
    "asser": 8911,
    "ain": 8912,
    "ads": 8913,
    "ace": 8914,
    "Spur": 8915,
    "Politiker": 8916,
    "Patrick": 8917,
    "Neuse@@": 8918,
    "Motorrad": 8919,
    "Motoren": 8920,
    "Krä@@": 8921,
    "Kaffee": 8922,
    "Identität": 8923,
    "Hongkong": 8924,
    "Hills": 8925,
    "Hawai@@": 8926,
    "Hamil@@": 8927,
    "Glas": 8928,
    "Gebäudes": 8929,
    "Fisch": 8930,
    "Abenteuer": 8931,
    "vision": 8932,
    "verändert": 8933,
    "verstanden": 8934,
    "verletzt": 8935,
    "sident@@": 8936,
    "liefert": 8937,
    "itte": 8938,
    "getrennt": 8939,
    "förmig": 8940,
    "funktion": 8941,
    "erien": 8942,
    "archie": 8943,
    "Villa": 8944,
    "Taus@@": 8945,
    "Süda@@": 8946,
    "Stär@@": 8947,
    "Roo@@": 8948,
    "Ritter": 8949,
    "Republikan@@": 8950,
    "Program@@": 8951,
    "Philosoph@@": 8952,
    "Pass": 8953,
    "Maler": 8954,
    "Kennedy": 8955,
    "Herkun@@": 8956,
    "Griechen@@": 8957,
    "Douglas": 8958,
    "Al": 8959,
    "zdem": 8960,
    "vil": 8961,
    "verschieden@@": 8962,
    "vergessen": 8963,
    "val": 8964,
    "rün@@": 8965,
    "positionen": 8966,
    "ln": 8967,
    "leichter": 8968,
    "kna@@": 8969,
    "ield": 8970,
    "geschah": 8971,
    "gels": 8972,
    "gekauft": 8973,
    "gefällt": 8974,
    "brücke": 8975,
    "Zigarette": 8976,
    "Zigar@@": 8977,
    "Verwal@@": 8978,
    "Telefon": 8979,
    "Spielzeug": 8980,
    "Rah@@": 8981,
    "Lächeln": 8982,
    "Library": 8983,
    "Kommando": 8984,
    "Jour@@": 8985,
    "Harvard": 8986,
    "Group": 8987,
    "öffnet": 8988,
    "äus@@": 8989,
    "wartete": 8990,
    "verwandt": 8991,
    "verfolgt": 8992,
    "steig": 8993,
    "spra@@": 8994,
    "seln": 8995,
    "schied": 8996,
    "osoph@@": 8997,
    "miker": 8998,
    "kurr@@": 8999,
    "gst": 9000,
    "gin": 9001,
    "get": 9002,
    "delt": 9003,
    "bo": 9004,
    "ausch": 9005,
    "Weste": 9006,
    "Wege": 9007,
    "Versuche": 9008,
    "Südafrika": 9009,
    "Springs": 9010,
    "Spielern": 9011,
    "Server": 9012,
    "Schulter": 9013,
    "Ring": 9014,
    "Lane": 9015,
    "Kentucky": 9016,
    "Jeeves": 9017,
    "Fäl@@": 9018,
    "Force": 9019,
    "Deutsch": 9020,
    "Defin@@": 9021,
    "Dah@@": 9022,
    "Afrika": 9023,
    "äger": 9024,
    "zieren": 9025,
    "ulen": 9026,
    "uar": 9027,
    "singen": 9028,
    "sigkeit": 9029,
    "schre@@": 9030,
    "quellen": 9031,
    "publi@@": 9032,
    "owell": 9033,
    "oga": 9034,
    "lätzen": 9035,
    "ligen@@": 9036,
    "lien": 9037,
    "king": 9038,
    "ionen": 9039,
    "holt": 9040,
    "hinweg": 9041,
    "hie@@": 9042,
    "figur": 9043,
    "ering": 9044,
    "eits": 9045,
    "dor": 9046,
    "ditionen": 9047,
    "diert": 9048,
    "dia": 9049,
    "code": 9050,
    "chtern": 9051,
    "bewegt": 9052,
    "betri@@": 9053,
    "beteiligt": 9054,
    "begonnen": 9055,
    "ao": 9056,
    "aki": 9057,
    "Vide@@": 9058,
    "Stadtz@@": 9059,
    "Schließ@@": 9060,
    "Objekt": 9061,
    "Mond": 9062,
    "Minnesota": 9063,
    "Haut": 9064,
    "Earl": 9065,
    "Detroit": 9066,
    "&": 9067,
    "ätze": 9068,
    "ähren": 9069,
    "ählt": 9070,
    "ury": 9071,
    "unterrichtet": 9072,
    "unken": 9073,
    "ungewöhnlich": 9074,
    "trinken": 9075,
    "schwach": 9076,
    "richtet": 9077,
    "rang": 9078,
    "mache": 9079,
    "lässig": 9080,
    "lustr@@": 9081,
    "kinder": 9082,
    "hafen": 9083,
    "gerät": 9084,
    "fliegen": 9085,
    "fehlt": 9086,
    "erwartet": 9087,
    "ermöglichen": 9088,
    "dustr@@": 9089,
    "ding": 9090,
    "darum": 9091,
    "betrachten": 9092,
    "ader": 9093,
    "Veröffentlich@@": 9094,
    "Stärke": 9095,
    "Power": 9096,
    "Lernen": 9097,
    "Labour": 9098,
    "Käse": 9099,
    "Kurs": 9100,
    "Kentu@@": 9101,
    "Kent@@": 9102,
    "Jahrhunderts": 9103,
    "Geschäftsmann": 9104,
    "Front": 9105,
    "Fische": 9106,
    "Dak@@": 9107,
    "Country": 9108,
    "Canyon": 9109,
    "Canada": 9110,
    "Book": 9111,
    "Ansicht": 9112,
    "ücke": 9113,
    "yton": 9114,
    "unterteilt": 9115,
    "untersucht": 9116,
    "uel": 9117,
    "tue": 9118,
    "spazieren": 9119,
    "reifen": 9120,
    "preis": 9121,
    "op": 9122,
    "langte": 9123,
    "grund": 9124,
    "ghton": 9125,
    "gesprochen": 9126,
    "etts": 9127,
    "erlaubt": 9128,
    "einheiten": 9129,
    "cky": 9130,
    "buchen": 9131,
    "bie": 9132,
    "ausgewählt": 9133,
    "aktion": 9134,
    "Zus@@": 9135,
    "Ursprün@@": 9136,
    "Schlange": 9137,
    "Misch@@": 9138,
    "Master": 9139,
    "Management": 9140,
    "Krebs": 9141,
    "Konzert": 9142,
    "Hyp@@": 9143,
    "Foundation": 9144,
    "Found@@": 9145,
    "Erste": 9146,
    "Entertainment": 9147,
    "Cow@@": 9148,
    "Bou@@": 9149,
    "5@@": 9150,
    "äß@@": 9151,
    "ämpft": 9152,
    "vorhanden": 9153,
    "vard": 9154,
    "utzen": 9155,
    "utter": 9156,
    "ssig@@": 9157,
    "seu@@": 9158,
    "schrecklich": 9159,
    "ritt": 9160,
    "ohn": 9161,
    "jüd@@": 9162,
    "izi@@": 9163,
    "its": 9164,
    "ieden": 9165,
    "hinunter": 9166,
    "ela": 9167,
    "eau": 9168,
    "cester": 9169,
    "beschäftigt": 9170,
    "bereiten": 9171,
    "bereit": 9172,
    "bemerk@@": 9173,
    "beendet": 9174,
    "becken": 9175,
    "ban": 9176,
    "awa": 9177,
    "achsen": 9178,
    "abgeschlossen": 9179,
    "Okl@@": 9180,
    "Mail": 9181,
    "Juden": 9182,
    "Fan": 9183,
    "Erfahr@@": 9184,
    "Enkel": 9185,
    "D": 9186,
    "Cross": 9187,
    "Broadway": 9188,
    "zeitung": 9189,
    "wiegend": 9190,
    "wechseln": 9191,
    "verstehen": 9192,
    "verhalten": 9193,
    "verfügbar": 9194,
    "unterstützen": 9195,
    "ume": 9196,
    "ti": 9197,
    "telligen@@": 9198,
    "sium": 9199,
    "rus": 9200,
    "ix": 9201,
    "ikas": 9202,
    "holen": 9203,
    "glauben": 9204,
    "geschickt": 9205,
    "gelöst": 9206,
    "fru@@": 9207,
    "blem": 9208,
    "bla@@": 9209,
    "anisch": 9210,
    "aktionen": 9211,
    "Windows": 9212,
    "Stone": 9213,
    "Psychologie": 9214,
    "Open": 9215,
    "Missouri": 9216,
    "Künstlern": 9217,
    "Houston": 9218,
    "Hongkon@@": 9219,
    "Fähigkeit": 9220,
    "Dublin": 9221,
    "Comics": 9222,
    "Angela": 9223,
    "’": 9224,
    "ür": 9225,
    "ötz@@": 9226,
    "ögel": 9227,
    "zweifelt": 9228,
    "zucht": 9229,
    "zahlt": 9230,
    "wege": 9231,
    "ward": 9232,
    "vir@@": 9233,
    "sso@@": 9234,
    "rufen": 9235,
    "pa": 9236,
    "ota": 9237,
    "ony": 9238,
    "li": 9239,
    "iti": 9240,
    "ima": 9241,
    "hauses": 9242,
    "gor@@": 9243,
    "gnisse": 9244,
    "gefallen": 9245,
    "gebrochen": 9246,
    "eland": 9247,
    "durchgeführt": 9248,
    "derzei@@": 9249,
    "beziehen": 9250,
    "alth": 9251,
    "alia": 9252,
    "Verletz@@": 9253,
    "Soundtra@@": 9254,
    "Schweiz": 9255,
    "Pool": 9256,
    "Kinos": 9257,
    "It": 9258,
    "Instit@@": 9259,
    "Hof": 9260,
    "Freiheit": 9261,
    "Cup": 9262,
    "Cleveland": 9263,
    "Aufmerk@@": 9264,
    "windigkeit": 9265,
    "vidu@@": 9266,
    "ständen": 9267,
    "sst": 9268,
    "sien": 9269,
    "rüstung": 9270,
    "osi@@": 9271,
    "kult@@": 9272,
    "kehren": 9273,
    "kas": 9274,
    "jun@@": 9275,
    "gestorben": 9276,
    "entstehen": 9277,
    "dargestellt": 9278,
    "ated": 9279,
    "any": 9280,
    "Sun": 9281,
    "Student@@": 9282,
    "Studen@@": 9283,
    "Staates": 9284,
    "Philadelph@@": 9285,
    "Oreg@@": 9286,
    "Mississippi": 9287,
    "Louisiana": 9288,
    "Lippen": 9289,
    "Insekten": 9290,
    "Gesam@@": 9291,
    "E": 9292,
    "Brookl@@": 9293,
    "Armen": 9294,
    "Alab@@": 9295,
    "übrig": 9296,
    "ämpfen": 9297,
    "xis": 9298,
    "tra": 9299,
    "ssel": 9300,
    "ship": 9301,
    "serve": 9302,
    "schießen": 9303,
    "schaffen": 9304,
    "regel@@": 9305,
    "ops": 9306,
    "nchen": 9307,
    "kreis": 9308,
    "innt": 9309,
    "herine": 9310,
    "geändert": 9311,
    "gelb": 9312,
    "fähig": 9313,
    "fot@@": 9314,
    "folge@@": 9315,
    "erstellt": 9316,
    "disch": 9317,
    "abhängig": 9318,
    "Wunsch": 9319,
    "Tenn@@": 9320,
    "Singap@@": 9321,
    "Oklahoma": 9322,
    "Ohren": 9323,
    "Montreal": 9324,
    "Maryland": 9325,
    "Kenne@@": 9326,
    "Edin@@": 9327,
    "Dallas": 9328,
    "Colorado": 9329,
    "zir@@": 9330,
    "verbreitet": 9331,
    "trolle": 9332,
    "tan": 9333,
    "sied@@": 9334,
    "reduziert": 9335,
    "out": 9336,
    "oma": 9337,
    "mensch@@": 9338,
    "mas": 9339,
    "jap@@": 9340,
    "iem@@": 9341,
    "geschehen": 9342,
    "fordert": 9343,
    "einrichtungen": 9344,
    "bewusst": 9345,
    "ations": 9346,
    "ants": 9347,
    "Zau@@": 9348,
    "Unterschie@@": 9349,
    "Restau@@": 9350,
    "Jeff@@": 9351,
    "Hits": 9352,
    "Dahlia": 9353,
    "äß": 9354,
    "zwöl@@": 9355,
    "wütend": 9356,
    "wärtig": 9357,
    "versteckt": 9358,
    "verhaftet": 9359,
    "uri": 9360,
    "sonder@@": 9361,
    "rix": 9362,
    "rier": 9363,
    "owa": 9364,
    "kaufen": 9365,
    "eint": 9366,
    "ander": 9367,
    "amerika": 9368,
    "ado": 9369,
    "Zerem@@": 9370,
    "Seattle": 9371,
    "Seat@@": 9372,
    "Reihen@@": 9373,
    "Profess@@": 9374,
    "Oregon": 9375,
    "Eins": 9376,
    "Dakota": 9377,
    "Chance": 9378,
    "Bass": 9379,
    "wirken": 9380,
    "verkaufen": 9381,
    "veranstaltet": 9382,
    "ppy": 9383,
    "iveau": 9384,
    "geblieben": 9385,
    "ehmi@@": 9386,
    "drücken": 9387,
    "droht": 9388,
    "davor": 9389,
    "chan@@": 9390,
    "ausgesprochen": 9391,
    "arriere": 9392,
    "Way": 9393,
    "Trot@@": 9394,
    "Trail": 9395,
    "Tayl@@": 9396,
    "Spanisch": 9397,
    "Iran": 9398,
    "Entfern@@": 9399,
    "Dauer": 9400,
    "ühm@@": 9401,
    "vater": 9402,
    "sign": 9403,
    "oria": 9404,
    "griffe": 9405,
    "greifen": 9406,
    "fügen": 9407,
    "feiern": 9408,
    "etzen": 9409,
    "erforderlich": 9410,
    "dauern": 9411,
    "bedeutete": 9412,
    "ago": 9413,
    "Pop": 9414,
    "Montre@@": 9415,
    "Home": 9416,
    "Connecticut": 9417,
    "Behör@@": 9418,
    "Asien": 9419,
    "ös": 9420,
    "volution": 9421,
    "spielsweise": 9422,
    "merzen": 9423,
    "hire": 9424,
    "grau": 9425,
    "geschützt": 9426,
    "geplant": 9427,
    "gegensei@@": 9428,
    "ernannt": 9429,
    "entworfen": 9430,
    "bens": 9431,
    "behalten": 9432,
    "austr@@": 9433,
    "aufgeführt": 9434,
    "alisiert": 9435,
    "Tem@@": 9436,
    "Singapur": 9437,
    "Minne@@": 9438,
    "Metal": 9439,
    "Live": 9440,
    "Kent": 9441,
    "Intelligen@@": 9442,
    "Grie@@": 9443,
    "9@@": 9444,
    "6@@": 9445,
    "ächer": 9446,
    "zugänglich": 9447,
    "tier": 9448,
    "sas": 9449,
    "ran": 9450,
    "liefern": 9451,
    "leistet": 9452,
    "kunft": 9453,
    "komplex": 9454,
    "holz": 9455,
    "gründen": 9456,
    "geleitet": 9457,
    "druckt": 9458,
    "besetzt": 9459,
    "auft": 9460,
    "Wet@@": 9461,
    "Pflan@@": 9462,
    "Pers@@": 9463,
    "News": 9464,
    "Bestand@@": 9465,
    "Alabama": 9466,
    "üd@@": 9467,
    "üblich": 9468,
    "zeichnungen": 9469,
    "undet": 9470,
    "stritten": 9471,
    "schmerzen": 9472,
    "lächelt": 9473,
    "kriegs": 9474,
    "istor@@": 9475,
    "erinnern": 9476,
    "dieren": 9477,
    "aue": 9478,
    "Time": 9479,
    "Schick@@": 9480,
    "Me": 9481,
    "Life": 9482,
    "Indiana": 9483,
    "Eliz@@": 9484,
    "Cem@@": 9485,
    "Angelegen@@": 9486,
    "&@@": 9487,
    "ümer": 9488,
    "ührt": 9489,
    "überlebt": 9490,
    "werfen": 9491,
    "verbind@@": 9492,
    "ungs": 9493,
    "unger": 9494,
    "studiert": 9495,
    "ssourc@@": 9496,
    "samkeit": 9497,
    "q": 9498,
    "mingham": 9499,
    "militär@@": 9500,
    "lichten": 9501,
    "iele": 9502,
    "handeln": 9503,
    "glaubt": 9504,
    "geschnitten": 9505,
    "geeignet": 9506,
    "fang": 9507,
    "eg": 9508,
    "edy": 9509,
    "dreiß@@": 9510,
    "dent": 9511,
    "chtet": 9512,
    "bezeichnen": 9513,
    "Tabel@@": 9514,
    "Sees": 9515,
    "Rasen": 9516,
    "Mikrofon": 9517,
    "Jul@@": 9518,
    "Alpha": 9519,
    "öffnen": 9520,
    "unmöglich": 9521,
    "stown": 9522,
    "stert": 9523,
    "steige": 9524,
    "spezialisiert": 9525,
    "sichten": 9526,
    "osten": 9527,
    "mittl@@": 9528,
    "kümmern": 9529,
    "kontin@@": 9530,
    "inne": 9531,
    "gerichtet": 9532,
    "fizieren": 9533,
    "ex": 9534,
    "entiert": 9535,
    "brauch": 9536,
    "ardo": 9537,
    "andt": 9538,
    "Original": 9539,
    "Griechenland": 9540,
    "Gesprä@@": 9541,
    "2": 9542,
    "/@@": 9543,
    "wall": 9544,
    "serviert": 9545,
    "sal": 9546,
    "ows": 9547,
    "mmen": 9548,
    "menge": 9549,
    "ierend": 9550,
    "hand": 9551,
    "geöffnet": 9552,
    "geworden": 9553,
    "gebildet": 9554,
    "euert": 9555,
    "erweitert": 9556,
    "erreichen": 9557,
    "enne@@": 9558,
    "bewegen": 9559,
    "behauptete": 9560,
    "Worten": 9561,
    "Herausge@@": 9562,
    "Hawaii": 9563,
    "Geräusch": 9564,
    "Dall@@": 9565,
    "Abenteu@@": 9566,
    "wirkungen": 9567,
    "verbessert": 9568,
    "teili@@": 9569,
    "sinn": 9570,
    "präsent@@": 9571,
    "mat": 9572,
    "läne": 9573,
    "leistungen": 9574,
    "isieren": 9575,
    "ieder@@": 9576,
    "geschaffen": 9577,
    "gelesen": 9578,
    "europ@@": 9579,
    "eingestellt": 9580,
    "damal@@": 9581,
    "begleitet": 9582,
    "ario": 9583,
    "Vertre@@": 9584,
    "Verteidig@@": 9585,
    "Uns@@": 9586,
    "Unab@@": 9587,
    "Spez@@": 9588,
    "Hampshire": 9589,
    "Einkauf@@": 9590,
    "Brooklyn": 9591,
    "Blues": 9592,
    "7@@": 9593,
    "übernommen": 9594,
    "wimm@@": 9595,
    "verteilt": 9596,
    "spiegel": 9597,
    "okrat@@": 9598,
    "interessiert": 9599,
    "hinzugefügt": 9600,
    "gewinnen": 9601,
    "gehoben": 9602,
    "geheiratet": 9603,
    "frau": 9604,
    "erkun@@": 9605,
    "eignet": 9606,
    "dion": 9607,
    "beherber@@": 9608,
    "bart": 9609,
    "ause": 9610,
    "H": 9611,
    "4@@": 9612,
    "ux": 9613,
    "urce": 9614,
    "striert": 9615,
    "schnitte": 9616,
    "reibt": 9617,
    "ordnet": 9618,
    "ischerweise": 9619,
    "geprägt": 9620,
    "gelernt": 9621,
    "ernen": 9622,
    "berichtet": 9623,
    "aufgelöst": 9624,
    "ahlen": 9625,
    "abgeleitet": 9626,
    "Produz@@": 9627,
    "Kör@@": 9628,
    "Ihr@@": 9629,
    "Eisenb@@": 9630,
    "Compu@@": 9631,
    "Allgem@@": 9632,
    "übertragen": 9633,
    "wahr": 9634,
    "schlafen": 9635,
    "pfer": 9636,
    "finanziert": 9637,
    "errichtet": 9638,
    "deu@@": 9639,
    "begraben": 9640,
    "antwortet": 9641,
    "Wisconsin": 9642,
    "S": 9643,
    "Rugby": 9644,
    "M": 9645,
    "L": 9646,
    "Kombin@@": 9647,
    "4": 9648,
    "überqueren": 9649,
    "ördert": 9650,
    "unser@@": 9651,
    "tauchen": 9652,
    "tah": 9653,
    "our": 9654,
    "ohl": 9655,
    "odie": 9656,
    "hunder@@": 9657,
    "hinein": 9658,
    "gerufen": 9659,
    "etzt": 9660,
    "erkannt": 9661,
    "erhoben": 9662,
    "eindeu@@": 9663,
    "eim@@": 9664,
    "ahen": 9665,
    "R": 9666,
    "Quebec": 9667,
    "Columb@@": 9668,
    "Arth@@": 9669,
    "Aller@@": 9670,
    "8@@": 9671,
    "á@@": 9672,
    "urc@@": 9673,
    "präsiden@@": 9674,
    "passen": 9675,
    "notwendig": 9676,
    "leiten": 9677,
    "hinauf": 9678,
    "gearbeitet": 9679,
    "erzählen": 9680,
    "erkennen": 9681,
    "eingeführt": 9682,
    "begrenzt": 9683,
    "ausgerichtet": 9684,
    "angenommen": 9685,
    "angeboten": 9686,
    "akzeptiert": 9687,
    "Jem@@": 9688,
    "Halbin@@": 9689,
    "Gemäl@@": 9690,
    "..": 9691,
    "wendet": 9692,
    "verurteilt": 9693,
    "schützen": 9694,
    "ords": 9695,
    "omin@@": 9696,
    "nominiert": 9697,
    "kör@@": 9698,
    "heiraten": 9699,
    "gemischt": 9700,
    "ausgebildet": 9701,
    "antworten": 9702,
    "V": 9703,
    "Erinn@@": 9704,
    "Bür@@": 9705,
    "Anth@@": 9706,
    "<bin101>": 9707,
    "worben": 9708,
    "volu@@": 9709,
    "vide@@": 9710,
    "sweise": 9711,
    "niem@@": 9712,
    "konzentrieren": 9713,
    "kontr@@": 9714,
    "jor": 9715,
    "jenigen": 9716,
    "immen": 9717,
    "identifiziert": 9718,
    "geworfen": 9719,
    "ermordet": 9720,
    "entlassen": 9721,
    "dings": 9722,
    "beten": 9723,
    "angewendet": 9724,
    "ürzt": 9725,
    "verschwunden": 9726,
    "ursprüng@@": 9727,
    "undert": 9728,
    "sammeln": 9729,
    "rom@@": 9730,
    "raus": 9731,
    "ogar": 9732,
    "mittag": 9733,
    "mieren": 9734,
    "kritisiert": 9735,
    "hyth@@": 9736,
    "hoffe": 9737,
    "gegessen": 9738,
    "gedreht": 9739,
    "gedacht": 9740,
    "esse": 9741,
    "dustrie": 9742,
    "Zusätz@@": 9743,
    "N": 9744,
    "Heraus@@": 9745,
    "verwundet": 9746,
    "verlegt": 9747,
    "schreibung": 9748,
    "schland": 9749,
    "schieden": 9750,
    "nee": 9751,
    "loss": 9752,
    "logen": 9753,
    "lobt": 9754,
    "leid": 9755,
    "bewahrt": 9756,
    "adem@@": 9757,
    "abgelehnt": 9758,
    "Publi@@": 9759,
    "Opp@@": 9760,
    "Margar@@": 9761,
    "Läch@@": 9762,
    "Libr@@": 9763,
    "Inv@@": 9764,
    "7": 9765,
    "zuständig": 9766,
    "wickelt": 9767,
    "voraus": 9768,
    "vertrauen": 9769,
    "untergebracht": 9770,
    "töten": 9771,
    "sprochen": 9772,
    "sichtbar": 9773,
    "olis": 9774,
    "lossen": 9775,
    "komponiert": 9776,
    "inspiriert": 9777,
    "haupt": 9778,
    "beschädigt": 9779,
    "ampf": 9780,
    "abhängi@@": 9781,
    "Viz@@": 9782,
    "Vergan@@": 9783,
    "T": 9784,
    "Ost": 9785,
    "Jes@@": 9786,
    "Entertain@@": 9787,
    "Dunk@@": 9788,
    "Detro@@": 9789,
    "ziem@@": 9790,
    "zeh@@": 9791,
    "verfasst": 9792,
    "umbenannt": 9793,
    "tikern": 9794,
    "lernen": 9795,
    "füllen": 9796,
    "erzeugen": 9797,
    "erklären": 9798,
    "erfahren": 9799,
    "ehmen": 9800,
    "bewohnt": 9801,
    "beschreiben": 9802,
    "ausgestattet": 9803,
    "appen": 9804,
    "angebracht": 9805,
    "agne": 9806,
    "Origin@@": 9807,
    "Niem@@": 9808,
    "Ja": 9809,
    "Energ@@": 9810,
    "Dez@@": 9811,
    "verursachen": 9812,
    "sym@@": 9813,
    "lösen": 9814,
    "herausgegeben": 9815,
    "gram@@": 9816,
    "glas": 9817,
    "geteilt": 9818,
    "gesam@@": 9819,
    "fon": 9820,
    "festgestellt": 9821,
    "festgelegt": 9822,
    "destens": 9823,
    "betrifft": 9824,
    "behauptet": 9825,
    "Weih@@": 9826,
    "Times": 9827,
    "Exist@@": 9828,
    "Centr@@": 9829,
    "ängerin": 9830,
    "zial@@": 9831,
    "western": 9832,
    "wendung": 9833,
    "vertrieben": 9834,
    "vergeben": 9835,
    "stungen": 9836,
    "staat": 9837,
    "sichtig": 9838,
    "pson": 9839,
    "misch": 9840,
    "leisten": 9841,
    "gren@@": 9842,
    "gerettet": 9843,
    "gefahren": 9844,
    "flä@@": 9845,
    "erzielt": 9846,
    "erweise": 9847,
    "boar@@": 9848,
    "betreut": 9849,
    "angebaut": 9850,
    "Sout@@": 9851,
    "Häl@@": 9852,
    "Eig@@": 9853,
    "Dopp@@": 9854,
    "yon": 9855,
    "wünschte": 9856,
    "völ@@": 9857,
    "vertreten": 9858,
    "verliehen": 9859,
    "urch": 9860,
    "tie": 9861,
    "roffen": 9862,
    "onnen": 9863,
    "chmal": 9864,
    "bestätigt": 9865,
    "anerkannt": 9866,
    "Whi@@": 9867,
    "Fiction": 9868,
    "8": 9869,
    "​@@": 9870,
    "verbringen": 9871,
    "try": 9872,
    "listet": 9873,
    "kott@@": 9874,
    "geliefert": 9875,
    "erwarten": 9876,
    "erhältlich": 9877,
    "ausgezeichnet": 9878,
    "ausgestrahlt": 9879,
    "aufhin": 9880,
    "aufgebaut": 9881,
    "allgem@@": 9882,
    "Symp@@": 9883,
    "REMOVE": 9884,
    "K": 9885,
    "üben": 9886,
    "zin": 9887,
    "wö@@": 9888,
    "stehe": 9889,
    "sprä@@": 9890,
    "hodo@@": 9891,
    "geordnet": 9892,
    "gefähr": 9893,
    "gefasst": 9894,
    "gedruckt": 9895,
    "fft": 9896,
    "entrum": 9897,
    "bourne": 9898,
    "bchen": 9899,
    "aufgeteilt": 9900,
    "adt": 9901,
    "abet@@": 9902,
    "Christop@@": 9903,
    "Begin@@": 9904,
    "5": 9905,
    "öze@@": 9906,
    "ó@@": 9907,
    "ñ@@": 9908,
    "´@@": 9909,
    "zurückzuführen": 9910,
    "verlieren": 9911,
    "telte": 9912,
    "otto": 9913,
    "neur": 9914,
    "nab@@": 9915,
    "kind": 9916,
    "fran@@": 9917,
    "entscheiden": 9918,
    "diskutiert": 9919,
    "Rett@@": 9920,
    "P": 9921,
    "vorbereitet": 9922,
    "retten": 9923,
    "reis": 9924,
    "owj@@": 9925,
    "nein": 9926,
    "ischte": 9927,
    "gner": 9928,
    "gia": 9929,
    "genheit": 9930,
    "funktionieren": 9931,
    "froh": 9932,
    "emen": 9933,
    "einzi@@": 9934,
    "denti@@": 9935,
    "asselbe": 9936,
    "angegeben": 9937,
    "W": 9938,
    "Spre@@": 9939,
    "Paci@@": 9940,
    "J": 9941,
    "Base@@": 9942,
    "3": 9943,
    "yland": 9944,
    "unabhängi@@": 9945,
    "träch@@": 9946,
    "syl@@": 9947,
    "nieder": 9948,
    "gum@@": 9949,
    "gorith@@": 9950,
    "gewidmet": 9951,
    "gelegen": 9952,
    "gekennzeichnet": 9953,
    "frika": 9954,
    "ersetzen": 9955,
    "benach@@": 9956,
    "Mic@@": 9957,
    "Inner@@": 9958,
    "Fant@@": 9959,
    "Überre@@": 9960,
    "zeln": 9961,
    "wai@@": 9962,
    "vorgeschlagen": 9963,
    "verboten": 9964,
    "solv@@": 9965,
    "quot@@": 9966,
    "hoben": 9967,
    "haupts@@": 9968,
    "gelangen": 9969,
    "gehabt": 9970,
    "erkennung": 9971,
    "entlichen": 9972,
    "cil": 9973,
    "barung": 9974,
    "aufgewachsen": 9975,
    "anstal@@": 9976,
    "ahr": 9977,
    "abgehalten": 9978,
    "Z": 9979,
    "Unit@@": 9980,
    "Online": 9981,
    "Kohl@@": 9982,
    "Kathedr@@": 9983,
    "Episo@@": 9984,
    "Bertie": 9985,
    "ächlich": 9986,
    "zeugt": 9987,
    "wett@@": 9988,
    "westen": 9989,
    "ulpt@@": 9990,
    "tigkeits@@": 9991,
    "strahlt": 9992,
    "rums": 9993,
    "nommen": 9994,
    "kto@@": 9995,
    "hl": 9996,
    "hause": 9997,
    "gewachsen": 9998,
    "gefeiert": 9999,
    "ffee": 10000,
    "Deu@@": 10001,
    "zugeschrieben": 10002,
    "vermeiden": 10003,
    "verfolgen": 10004,
    "umstritten": 10005,
    "rence": 10006,
    "lück@@": 10007,
    "komoti@@": 10008,
    "gesungen": 10009,
    "eröffnet": 10010,
    "bol": 10011,
    "beschlossen": 10012,
    "Sep@@": 10013,
    "Nord": 10014,
    "Aug@@": 10015,
    ":@@": 10016,
    "9": 10017,
    "ú@@": 10018,
    "vorgestellt": 10019,
    "vorgenommen": 10020,
    "verbessern": 10021,
    "ssist@@": 10022,
    "ligi@@": 10023,
    "iest": 10024,
    "chsel@@": 10025,
    "ausgestellt": 10026,
    "abri@@": 10027,
    "Ahnung": 10028,
    "„": 10029,
    "´": 10030,
    "verhindern": 10031,
    "orben": 10032,
    "okol@@": 10033,
    "igan": 10034,
    "gliedert": 10035,
    "gezwungen": 10036,
[...]
